[PAD]
[UNK]
[CLS]
[SEP]
[MASK]
!
"
%
&
'
(
)
*
+
,
-
.
/
0
1
2
3
4
5
6
7
8
9
:
;
<
=
>
?
@
A
B
C
D
E
F
G
I
K
L
M
N
O
P
R
S
T
V
X
[
]
^
_
`
a
b
c
d
e
f
g
h
i
j
k
l
m
n
o
p
r
s
t
u
v
w
x
y
z
~
★
♡
♥
ㄱ
ㄴ
ㄷ
ㄹ
ㅁ
ㅂ
ㅅ
ㅇ
ㅈ
ㅉ
ㅋ
ㅎ
ㅏ
ㅗ
ㅜ
ㅠ
ㅡ
ㅣ
가
각
간
갈
감
갑
값
갓
갔
강
갖
같
개
객
갠
갱
걍
거
건
걸
검
겁
것
겉
게
겐
겟
겠
겨
격
견
결
겹
겼
경
계
고
곡
곤
골
곱
곳
공
과
관
광
괜
괴
굉
교
구
국
군
굳
굴
굿
궁
권
귀
규
균
그
극
근
글
금
급
기
긴
길
김
깊
까
깎
깐
깔
깜
깝
깨
꺼
껄
껏
께
껴
꼈
꼬
꼭
꼴
꼽
꽃
꽝
꽤
꾸
꾼
꿀
꿈
꿔
뀌
끄
끈
끊
끌
끔
끝
끼
낀
낄
낌
나
낙
낚
난
날
남
납
낫
났
낭
낮
낳
내
낸
낼
냄
냈
냉
냐
냥
너
넌
널
넘
넣
네
넷
녀
년
념
녕
노
녹
논
놀
놈
농
높
놓
놔
놨
뇌
누
눈
뉴
느
는
늘
늙
능
늦
니
닉
닌
닐
님
닙
닝
다
닥
단
닫
달
닮
담
답
당
닿
대
댄
댓
더
덕
던
덜
덤
덩
데
덴
뎁
도
독
돈
돋
돌
동
돼
됐
되
된
될
됨
됩
됬
두
둘
둥
뒤
뒷
드
득
든
듣
들
듬
듭
듯
등
디
딘
딧
딩
따
딱
딴
딸
땅
때
땐
땜
땡
떄
떠
떡
떤
떨
떻
떼
또
똑
똥
뚝
뚱
뛰
뜨
뜩
뜬
뜻
라
락
란
랄
람
랍
랐
랑
래
랙
랜
램
랫
랬
략
량
러
럭
런
럴
럼
럽
렁
렇
레
렉
렌
려
력
련
렬
렵
렷
렸
령
례
로
록
론
롭
롯
롱
뢰
료
룡
루
룬
류
륜
률
륭
르
른
를
름
리
릭
린
릴
림
립
릿
링
마
막
만
많
말
맘
맙
맛
망
맞
맡
매
맥
맨
맹
머
먹
먼
멀
멈
멋
멍
메
멘
멜
며
면
멸
명
몇
모
목
몬
몰
몸
못
몽
묘
무
묵
문
묻
물
뭉
뭐
뭔
뭘
뮤
므
미
믹
민
믿
밀
밋
밌
밑
바
박
밖
반
받
발
밝
밤
밥
방
배
백
뱀
버
번
벌
범
법
벗
베
벤
벨
벼
벽
변
별
볍
병
보
복
본
볼
봄
봅
봇
봉
봐
봣
봤
부
북
분
불
붕
붙
뷰
브
븐
블
비
빅
빈
빌
빗
빙
빛
빠
빡
빨
빵
빼
뻐
뻔
뽑
뽕
뿌
뿐
뿔
쁘
쁜
쁨
사
삭
산
살
삶
삼
상
새
색
샘
생
샤
서
석
섞
선
설
섬
섭
섯
성
세
섹
센
셀
셈
셉
셔
션
셨
소
속
손
솔
송
쇼
수
숙
순
술
숨
숭
쉬
쉽
슈
스
슨
슬
슴
습
슷
승
시
식
신
실
싫
심
십
싱
싶
싸
쌍
써
썩
썼
쎄
쏘
쓰
쓴
쓸
씀
씁
씨
씩
씬
씹
아
악
안
앉
않
알
암
압
앗
았
앙
앞
애
액
앤
야
약
양
얘
어
억
언
얻
얼
엄
업
없
엇
었
엉
에
엑
엔
엘
엠
여
역
연
열
염
엽
엿
였
영
옆
예
옛
오
옥
온
올
옴
옷
옹
와
완
왓
왔
왕
왜
왠
외
요
욕
용
우
욱
운
울
움
웃
웅
워
원
월
웠
웨
웬
위
윌
유
육
윤
율
으
은
을
음
응
의
이
익
인
일
읽
잃
임
입
잇
있
잉
잊
자
작
잔
잖
잘
잠
잡
잤
장
재
잭
잼
쟁
저
적
전
절
젊
점
접
정
제
젠
젤
져
졌
조
족
존
졸
좀
종
좋
좌
죄
죠
주
죽
준
줄
줌
줍
중
줘
줬
쥐
쥬
즈
즌
즐
즘
증
지
직
진
질
짐
집
짓
징
짜
짝
짠
짧
짱
째
쩌
쩐
쩔
쩜
쩝
쩡
쪽
쫌
쯤
쯧
찌
찍
찝
찡
차
착
찬
찮
찰
참
창
찾
채
책
챙
처
척
천
철
첨
첩
첫
청
체
쳐
쳤
초
촌
총
촬
최
쵝
추
축
춘
출
춤
충
춰
취
츠
측
치
칙
친
칠
침
칭
카
칸
칼
캐
커
컨
컬
컴
컷
케
켜
코
콘
콜
콤
콩
쾌
쿠
쿵
퀄
퀴
큐
크
큰
클
큼
키
킨
킬
킹
타
탁
탄
탈
탐
탑
탕
태
택
터
턴
털
테
텐
텔
토
톤
톰
톱
통
퇴
투
퉁
튀
트
특
튼
틀
틈
티
틱
틴
팀
팅
파
팍
판
팔
패
팩
팬
퍼
펐
펑
페
펙
펜
편
평
폐
포
폭
폰
폴
표
푸
푹
풀
품
풋
풍
퓨
프
픈
플
픔
피
픽
필
하
학
한
할
함
합
항
해
핵
햇
했
행
향
허
헌
헐
험
헛
헤
헬
혀
혁
현
혈
혐
협
형
혜
호
혹
혼
홀
홍
화
확
환
활
황
회
획
효
후
훈
훌
훨
휘
휴
흉
흐
흑
흔
흘
흠
흡
흥
희
히
힌
힐
힘
##다
##라
##는
##청
##률
##높
##이
##니
##깐
##지
##경
##인
##데
##맞
##으
##면
##품
##도
##주
##진
##짜
##좋
##아
##요
##생
##기
##구
##성
##가
##마
##간
##화
##같
##네
##박
##였
##을
##텐
##k
##f
##a
##l
##s
##d
##m
##o
##v
##b
##e
##t
##h
##방
##태
##소
##재
##정
##만
##로
##한
##테
##좀
##귀
##여
##워
##관
##희
##의
##난
##스
##러
##움
##에
##동
##와
##냐
##1
##해
##길
##래
##끄
##럽
##않
##밌
##었
##디
##ㅋ
##혈
##골
##영
##자
##사
##할
##수
##대
##하
##것
##죠
##리
##걸
##음
##값
##치
##시
##죽
##현
##했
##겠
##X
##려
##고
##z
##u
##미
##있
##거
##적
##글
##당
##격
##장
##람
##말
##작
##은
##습
##비
##들
##O
##암
##덩
##어
##임
##공
##읽
##매
##게
##싸
##서
##틴
##예
##닿
##렸
##록
##n
##r
##i
##g
##상
##파
##드
##분
##두
##때
##히
##나
##오
##볼
##타
##보
##왜
##곡
##편
##감
##유
##발
##랑
##북
##던
##놈
##신
##봅
##냈
##밖
##처
##럼
##찾
##봤
##플
##링
##판
##번
##봣
##민
##좌
##개
##심
##를
##0
##살
##터
##빠
##족
##른
##눈
##남
##안
##됨
##물
##그
##ㅠ
##짱
##된
##짓
##깝
##브
##부
##산
##홍
##과
##급
##배
##우
##달
##운
##내
##없
##틀
##올
##겟
##써
##팀
##세
##울
##루
##토
##식
##씬
##애
##되
##명
##곤
##레
##풀
##류
##점
##겨
##천
##괴
##력
##일
##제
##춘
##밋
##각
##뿐
##망
##후
##즈
##저
##질
##ㅅ
##ㅂ
##억
##케
##노
##포
##문
##넘
##뿔
##르
##찬
##욱
##독
##프
##필
##듯
##졸
##긴
##중
##역
##입
##조
##설
##캐
##릭
##원
##카
##모
##야
##까
##차
##초
##딩
##란
##건
##척
##엔
##속
##낭
##쩌
##줄
##탁
##준
##바
##꾸
##키
##승
##먼
##결
##합
##왕
##느
##님
##종
##쁜
##황
##ㅎ
##큼
##랐
##며
##림
##학
##았
##온
##슬
##연
##붙
##힐
##붕
##웃
##무
##멋
##랜
##날
##팅
##전
##병
##규
##변
##겹
##겁
##견
##씩
##본
##또
##행
##8
##펜
##싶
##잼
##범
##삶
##못
##될
##향
##혁
##국
##창
##완
##빼
##교
##군
##웠
##받
##폐
##린
##실
##함
##능
##륜
##팬
##잤
##더
##용
##져
##쾌
##짐
##환
##춰
##버
##즘
##갔
##얼
##확
##쌍
##많
##접
##낮
##찍
##슴
##송
##패
##톱
##랫
##딴
##단
##광
##권
##투
##땐
##메
##햇
##돈
##립
##코
##풍
##잘
##통
##픈
##앞
##낄
##든
##트
##크
##됐
##런
##M
##티
##피
##집
##호
##렵
##욕
##약
##선
##숭
##뻔
##렇
##잡
##둥
##졌
##ㅜ
##놀
##엄
##맛
##불
##갑
##맡
##3
##회
##반
##땅
##추
##계
##겐
##c
##머
##벌
##평
##꺼
##탕
##김
##뎁
##갓
##형
##순
##찌
##년
##료
##떠
##표
##폭
##누
##너
##앤
##알
##먹
##킨
##헤
##씨
##봐
##직
##철
##론
##룡
##♥
##♡
##쉬
##새
##열
##잇
##듣
##4
##F
##외
##뜩
##슨
##뇌
##탄
##낌
##악
##깨
##위
##찮
##돌
##봄
##5
##2
##6
##7
##씹
##놓
##괜
##쫌
##끌
##훈
##베
##증
##떨
##언
##맨
##퍼
##액
##션
##렷
##쏘
##련
##E
##N
##츠
##됬
##취
##큰
##체
##존
##꼴
##싫
##믹
##출
##떤
##닉
##특
##봉
##9
##꿀
##셨
##징
##닥
##커
##렌
##째
##궁
##녀
##끔
##릴
##묵
##름
##침
##ㅡ
##술
##빈
##놨
##균
##강
##줬
##흑
##십
##옥
##랄
##따
##뜻
##막
##활
##G
##A
##켜
##흉
##땜
##틱
##획
##락
##닌
##금
##쟁
##꼭
##법
##책
##낀
##량
##냥
##극
##백
##쁘
##솔
##몸
##별
##쓰
##봇
##참
##뷰
##윤
##ㅇ
##ㅣ
##랬
##쓸
##셔
##택
##죄
##목
##맘
##듬
##절
##ㅏ
##털
##갈
##육
##첫
##율
##빙
##뜨
##랙
##담
##늘
##빛
##줍
##덜
##객
##색
##끼
##끊
##항
##령
##근
##쳤
##섹
##냄
##착
##낸
##빨
##걍
##뢰
##쿠
##삭
##콤
##렁
##꼬
##쩔
##셈
##줘
##숨
##덕
##혀
##벽
##껏
##답
##등
##믿
##똥
##친
##흥
##충
##겼
##닝
##즌
##둘
##벤
##쳐
##옴
##킬
##텔
##쇼
##께
##쓴
##첨
##칠
##밀
##껄
##밥
##끝
##슷
##엇
##므
##익
##양
##ㄱ
##잖
##왔
##혼
##춤
##압
##논
##뮤
##낫
##축
##응
##뿌
##훨
##꿔
##놔
##널
##딱
##딘
##닐
##녕
##푸
##딸
##섭
##칸
##멜
##굴
##홀
##갖
##끈
##협
##쎄
##뭔
##략
##왓
##멘
##복
##ㅉ
##험
##젤
##뚱
##릿
##굿
##업
##혹
##블
##잠
##풋
##넣
##R
##I
##볍
##깔
##멀
##허
##ㅗ
##V
##퀴
##★
##탈
##흘
##빡
##석
##떡
##펐
##ㄹ
##삼
##페
##썼
##몰
##칙
##손
##꼽
##댄
##밤
##픽
##센
##멍
##뭐
##큐
##싱
##줌
##빵
##월
##펑
##혜
##휴
##껴
##웅
##ㄷ
##흐
##닫
##짝
##y
##돋
##클
##뽑
##S
##T
##낳
##씀
##롭
##앗
##굳
##p
##혐
##톤
##떄
##났
##ㅈ
##힘
##엠
##챙
##뀌
##P
##D
##j
##농
##맥
##곳
##찡
##뒤
##넷
##뉴
##옹
##멸
##C
##슈
##컬
##픔
##댓
##숙
##틈
##옷
##득
##엘
##잊
##폰
##콜
##젊
##꽃
##꼈
##섬
##힌
##롯
##낚
##몽
##즐
##랍
##최
##킹
##쩡
##얘
##롱
##씁
##벨
##쉽
##쪽
##램
##땡
##똑
##쁨
##첩
##엿
##튼
##채
##ㄴ
##떻
##탐
##뽕
##촌
##깜
##꾼
##맹
##덤
##몬
##w
##칼
##쯤
##짧
##찝
##꿈
##럭
##뻐
##묻
##콘
##쥬
##x
##엉
##륭
##빗
##덴
##앙
##찰
##컷
##턴
##깊
##퉁
##례
##효
##옛
##B
##탑
##쩐
##돼
##잔
##럴
##셉
##총
##묘
##웨
##컨
##콩
##빌
##퇴
##낙
##몇
##븐
##옆
##밑
##짠
##샘
##렉
##폴
##ㅁ
##뭉
##핵
##낼
##녹
##칭
##염
##퓨
##엑
##L
##왠
##잉
##냉
##딧
##잃
##뜬
##넌
##썩
##헌
##념
##늦
##쥐
##납
##엽
##팔
##뭘
##듭
##맙
##벼
##휘
##떼
##흡
##닮
##컴
##푹
##펙
##쩜
##잭
##퀄
##검
##밝
##섞
##팩
##샤
##깎
##뛰
##셀
##닙
##벗
##흠
##훌
##갠
##톰
##앉
##곱
##늙
##촬
##측
##뱀
##렬
##섯
##됩
##웬
##젠
##룬
##K
##굉
##헐
##꽝
##흔
##갱
##윌
##멈
##팍
##빅
##얻
##꽤
##뚝
##쿵
##쵝
##헛
##헬
##쯧
##쩝
##튀
##겉
##뒷
영화
##ㅋㅋ
##영화
##니다
##는데
너무
재미
##으로
##지만
정말
##하고
##네요
재밌
##에서
진짜
연기
##하는
##어요
최고
평점
이런
##습니다
##이다
##토리
##하다
##라마
생각
스토리
##들이
##ㅋㅋㅋㅋ
감동
보고
##까지
##하게
지루
##이라
##었다
##보다
드라마
그냥
배우
내용
10
아니
재미있
사람
감독
##레기
##면서
만들
재미없
##해서
##적인
사랑
##렇게
##다는
쓰레기
##리고
보는
영화를
ㅋㅋ
다시
시간
좋아
좋은
##지막
##보고
이거
##으면
이건
영화는
마지막
영화가
##라고
내가
작품
##들의
봤는데
##ㅠㅠ
완전
기대
최고의
액션
##지는
없는
##인공
##하지
##다가
##입니다
좋았
있는
하나
ㅋㅋㅋ
##다고
지금
처음
##야기
한국
##어서
이게
##없는
없다
##세요
하는
나오
##같은
##적이
최악
이렇게
1점
##인데
##들은
10점
별로
연출
##에게
모르
이해
아깝
##부터
##적으로
##대로
그래
역시
우리
##겠다
##이나
그리고
명작
##있는
느낌
평점이
이야기
##한다
##했다
재밌게
기억
아이
이영화
괜찮
많이
##되는
여자
##합니다
##정도
##라는
장면
##지도
##주는
아름
그런
##문에
만든
ㅠㅠ
주인공
##연기
아까
##리는
공포
ㅎㅎ
마음
보여
일본
아무
아닌
##았다
같은
무슨
유치
##것도
볼만
##만에
##배우
##사람
현실
결말
##을까
##가는
없고
##아서
이상
##하나
##없이
다른
몰입
소재
##었는데
남자
반전
##하기
보면
##인가
##ㅋㅋㅋㅋㅋㅋㅋㅋ
아깝다
가장
보기
짜증
ㅡㅡ
##하면
##드는
##였다
가슴
OO
눈물
##드라마
20
매력
스릴
말이
##니까
##없다
애니
##구나
원작
##나는
인생
영화다
인간
대한
##이고
##미디
##인지
##스럽
음악
영상
##는다
##재미
정도
솔직
##는지
##릭터
있다
극장
##너무
##시간
##봐도
만들어
전개
하지만
많은
##었던
##더라
아직
##에는
##아요
모든
##리즈
##려고
##보는
##지마
##하지만
##스러
한번
##지고
이제
##지않
끝까지
##나서
아름다
필요
억지
수준
##처럼
##재밌
하고
##다니
솔직히
##었음
##ㅋㅋㅋ
뭔가
실망
##들을
추천
##0년
재밋
봐도
##나오
모두
전혀
엄청
##중에
아주
여운
연기력
##메이
캐릭터
##스터
그래도
코미디
##떻게
긴장
배우들
좋다
##나라
대박
공감
##기도
이걸
##했던
가족
##이는
계속
봤다
어떻게
##진짜
##주고
대단
개봉
같다
##을때
근데
##이지
##ㅎㅎ
최악의
##장면
##는거
##에도
영화의
대사
##리가
##건지
##스트
##때문에
나온
##이랑
##수록
영화에
재미있게
잔잔
##만들
재밌다
표현
모습
제목
내내
흥미
##이가
##했는데
진심
##라도
내용이
아니라
##기는
##없고
그렇
않고
##수가
보다
어디
##어야
요즘
잼있
##었어요
##던데
##하네요
##이라는
조금
기분
##주인공
##타임
##생각
긴장감
아쉽
연기가
나오는
개인
아니다
##하네
연기도
##점이
##내내
##봤는데
재미없다
스릴러
##라리
떨어
##영화는
느껴
내용도
##어도
않은
시리즈
재미도
막장
##한테
오랜
##기에
아쉬
특히
##전에
##리오
아름다운
나는
중간
나름
##성이
##해요
만드는
제작
##다면
그러
##00
자체
보다가
제대로
##하면서
알바
##리스
감독이
제일
봐야
##보면
부족
노래
차라리
미국
##으나
##들도
##만큼
##같다
##이라고
정신
1편
##인듯
나왔
웃기
스토리가
##아니
##된다
아까운
어설
##영화가
않는
이유
##대체
작가
##만한
아니고
시간이
##기가
##치는
##이란
##난다
##ㅜㅜ
왜이
시작
훌륭
##0년대
보고싶
따뜻
절대
##이상
스토리도
ㅋㅋㅋㅋ
때문에
영화라고
너무나
##감독
출연
로맨
뻔한
아직도
나도
세상
의미
##거리
##할수
어린
살아
감정
영화로
나와
##ㅡㅡ
남는
##에요
##해도
##있다
그저
##나고
도대체
무엇
##이네
여운이
보게
싶은
보면서
##진다
느끼
##마다
##더니
##나리오
##았는데
무서
모르겠
신선
감독의
감동적이
어이
##기를
수작
친구
##군요
무섭
장난
##하는데
##스팅
##밖에
재밌어요
강추
##나요
괜찮은
우리나라
영화입니다
시청
얼마
##로운
##스러운
싶다
주는
행복
##소리
영화였
안되
##었습니다
##으로도
마지막에
언제
되는
관객
사실
좋고
만화
멋진
오랜만에
답답
초반
##고싶
##최고
OOO
시나리오
점수
배우들의
부분
웃음
자신
전쟁
##이야
킬링
좋아하는
##해야
이해가
##영화를
##내용
결국
허접
슬프
오늘
##메이션
##없음
1점도
##준다
##지가
어색
좋았다
보는내내
소름
재미가
없음
##나게
최고다
봤던
추억
인상
지루한
어떤
##이네요
봤습니다
안타
배경
개인적으로
엔딩
영화관
지루하고
분위
완벽
시대
##인이
ㅜㅜ
생각이
##것이
다큐
##성도
이딴
힘들
지루함
아무리
##oo
##한데
어릴
##치고
귀여
제발
##디오
##이지만
당시
역사
##부분
스타
##한거
##동안
졸작
##구만
문제
##스토리
아름답
진부
##아깝
없이
유쾌
함께
들어
킬링타임
##점은
진정
##들에게
예술
##럽게
못한
코믹
##리지
포스터
그렇게
영화도
##을듯
주연
개연
##아까
공포영화
만들었
연기는
##점대
후회
있었
재밌는
애니메이션
찾아
오래
##♥♥
지루하다
돌아
캐스팅
얼마나
더빙
##건가
##나마
##보니
설정
##보단
보세요
##라이
##는게
##시길
몰입도
기억에
##사랑
여러
##구요
옛날
엄마
충격
영화라
사람이
보지마
##주의
##좋아
극장에서
주제
##정말
보지
충분
한국영화
##OO
##레이
좋아요
지나
##있고
어느
##들과
안되는
여기
##하며
궁금
중국
같이
##마디
그래서
말도
##한영화
미친
집중
##당히
하나도
##가지
매우
##길래
않았
##만든
##감동
잔인
후반
##했음
2편
##려는
것이
모르겠다
##이버
##텐데
있고
##인줄
여주인공
##작품
##적이고
불쌍
재밌음
순수
빠져
상상
##같이
##ㅠㅠㅠㅠ
ㅋㅋㅋㅋㅋ
##하시
##렸다
대체
뛰어
##놓고
##웠다
느낌이
ㅉㅉ
##르는
##버린
한다
이름
따라
봤어요
알고
마음이
약간
영화중
감동도
엉성
##것같
눈물이
하지
##st
그나마
나올
비슷
##자기
영상미
##야지
내용은
실화
걸작
이정도
##거지
그만
이쁘
감사
##0분
##력이
19
##수있
##성을
영화네요
얼굴
##점을
##했지만
위해
프로
##함을
##ㄷㄷ
사람들
누가
갈수록
않는다
가슴이
##자체
##기만
위한
훨씬
로맨스
전체
##해지는
##봤다
##워서
##쓰레기
CG
없었다
다음
한마디
단순
##리를
재미없음
네이버
##이야기
##듯한
비교
##가서
##이었다
굉장
##것을
##이라도
연기를
B급
오글
##으니
장르
초딩
##라서
##자가
##개도
노잼
##노잼
비디오
발연기
존나
##시절
티비
##10
##함이
##겠지만
어설픈
다들
어렸
감동이
기억이
시즌
200
이미
알았
인물
있을
화려
##느낌
상황
##말이
것을
보여주는
밖에
이것
##보게
##시키
##타지
없어
##지지
##대한
간만에
바로
성룡
사람들이
결말이
재밌고
##겠지
것도
느낄
##등학
영화관에서
##거나
##린다
##ood
당신
알게
스토리는
##스럽다
##재밋
귀엽
애들
킬링타임용
두번
여배우
##려서
생각보다
쓰레기영화
대해
잔잔한
3류
등장
사회
##말고
##연히
##이라면
마이
##인의
##머니
잘봤
##라면
##나온
##보기
교훈
##버지
영화였다
##론가
##전개
##수준
독특
##적이다
감동적인
다운
별점
않다
이후
##으면서
좋겠
##필요
그리
##짜리
같아요
평가
##었고
##거같
##주세요
삼류
상당히
2점
보니
잘못
진정한
맘에
아님
##거야
##잖아
배우들이
보았
##한번
##보고싶
전부
뭐야
##건데
아쉽다
각본
했는데
중간에
거의
##좋은
주고
해서
##인생
##정이
높은
##er
##스가
##해라
생각을
뭐지
어른
##어가
##감이
존재
제가
혼자
##이팅
##되고
영화임
재미는
세계
##정도로
실제
##평점
자기
저런
##분들
ㅋㅋㅋㅋㅋㅋㅋㅋㅋ
##하하
그러나
##아깝다
좋은데
그대로
기다
소설
몇번
이영화를
허무
##할때
감동을
##재미있
멜로
이번
하다
##수를
##졌다
##년이
굉장히
##여서
빨리
##아닌
나의
다르
어울
있을까
정도로
구성
##지루
##워요
슬픈
마음에
나이
자연
재미있어요
감독님
개그
예상
##하자
평점을
##나오는
좀비
##간다
##영화의
어쩌
같은데
봐서
에로
있지만
볼만한
##어나
재미있다
재미있는
방송
##스타
##본다
##보다는
영화인데
질질
##모르
나와서
##을수
##년도
재밌네요
##낭비
시청률
##시다
##에서도
봤지만
여주
##영화다
201
더욱
##들어
평론가
프랑
##을텐데
그녀
낮은
준다
##아야
##었지만
볼수
뭐냐
##라니
갑자기
멋지
##지를
##액션
생각하게
멋있
##하냐
극장판
머리
100
뭐가
가치
예고
케이
원작을
TV
상영
저는
항상
##에선
이런영화
##였음
재미없는
그때
##다른
판타지
예쁘
어디서
끝나
확실
흥행
##다는게
처음부터
믿고
불편
새로운
평범
##던가
크리스
##어지는
장면이
화면
##시대
##일이
##에서는
훌륭한
일단
있어서
중요
##예요
라는
##와서
##저히
역대
##스의
누구
성우
##고는
즐거
해도
##리의
안타깝
너무너무
있어
##아이
충분히
한마디로
꿀잼
탄탄
##인다
의도
##이라니
봐라
##에겐
주인공이
##중간
##속에
자체가
있었다
##때마다
생각해
못하는
살인
했다
리얼
전형
##도록
영화보다
만드
점점
##리티
tv
물론
한심
##러운
사람은
대단한
봤음
개연성
##메디
##사가
##했어요
##그런
있는데
##하니
분위기
감성
##들아
프랑스
가지고
아닐
##았음
##하지않
그런지
##스럽고
##봐서
돋보
잘만들
##유의
##우드
보여주
없어서
##립니다
good
식상
참고
헐리
이영화는
댓글
더럽게
사이
0점
편집
하게
아닌가
그림
##거다
##땜에
감독은
비해
합니다
##년전
홍콩
##진진
좋은영화
ㅎㅎㅎ
그게
카메
##가고
##자의
##했고
##당한
##민국
##조건
관람
순간
좋네요
한편
##으며
##았던
엉망
원래
이것도
진행
어쩔
다시봐도
어려
줄거리
훈훈
##영화중
##하지도
어릴때
것은
소리
아까움
자극
돈주고
선택
##이냐
##들만
사람들은
엄청난
몰랐
시절
##없어
안타까
미안
범죄
##한게
그닥
##일까
인간의
수가
평점은
끝내
망작
보는데
##아도
나쁜
없네
여전
##만으로도
##었으면
##히려
아빠
##조차
참신
전개가
만족
지금까지
아쉬운
##것같다
##시리즈
##봐야
과거
얘기
액션도
안보
##이면
##저씨
사랑을
먹먹
영웅
##편이
##되어
대한민국
##기고
##보면서
흥미진진
괜히
도저히
된다
죽음
진지
학교
가는
결혼
별루
재밌는데
만점
불륜
오히려
자꾸
감상
멍청
안나
힘든
##이런
##하긴
그래픽
후반부
무조건
좋겠다
##여자
오글거
귀신
재밌었다
배우가
따뜻한
아버지
##시는
병맛
##했습니다
영화인
모르고
##리게
##파이
##내는
3점
해야
평점에
진실
최근
로맨틱
대작
##하다고
완벽한
웃긴
이리
##엔딩
##코미디
우연히
비추
소중
무서운
독립
목소리
저도
##만이
##스런
##사회
##없네
억지로
예전에
이러
있음
##오는
##하는거
그럴
바보
복수
저질
전설
좋음
희망
##이트
##인물
##보세요
기대하고
바람
분명
##은데
가볍
천재
##그램
것이다
화이팅
##시고
##ㅠㅠㅠ
환상
##이하
##겠네
지루해
좋았어요
내인생
알려
전편
##어로
SF
ost
가능
돈이
유명
##현실
이런거
있다는
재미없어
아무것도
스타일
전형적인
되어
완성도
##그래
없을
메세
아오
앞으로
입니다
##우는
##메이크
어설프
마무
봤네요
아마
안된다
없네요
잊혀
##움이
##하여
##지마라
9점
미화
사라
신기
전문
하면
유치한
느끼게
나만
설명
##기대
##스를
##in
##친구
연출이
이야기를
그런데
나라
느꼈
##것이다
지금도
요소
##방송
##함과
바라
영원
유머
2시간
동화
전작
현재
흘러
##따위
그의
나쁘
노출
싫어
전기
죽는
##였는데
##랄까
모르는
아이들이
다행
웃겨
##봐라
##ST
영화에서
연출력
듯한
서로
전달
촬영
##대의
##안되는
##영화로
청춘
코메디
##리다
##있게
##내고
이상한
낫다
리메이크
우울
중반
##것은
##하는게
만들었다
처음으로
경찰
노력
인정
초등학
##심을
##그냥
##님의
부모
##지게
어렸을때
다운받
##네여
##ㅇㅇ
##같은데
비슷한
12
알았다
##님이
##ㅋㅋㅋㅋㅋㅋㅋㅋㅋㅋㅋㅋㅋㅋㅋㅋ
성장
아프
허술
##예산
무엇보다
이런걸
재미있고
화려한
90년대
##자들
##당시
##심이
##웠던
재미없고
OOO기
놀라
##식이
보고나서
시간낭비
즐겁
##보는데
##안하고
##년에
##막장
부족한
뜬금
##다시
##프로
재밌어
예고편
조연
##나면
모습이
게임
관계
알았는데
풀어
##세가
##싶다
왜이리
거지
이래
##기엔
##애니
장면은
유치하고
깊은
말고
행동
##아먹
##음악
##어울
최악이다
말하고
특유의
해피
##이거
##평가
좋았습니다
이젠
중에
##짜증
15
왠지
##보이
보여준
진부한
##더군요
작품이
마치
##만하면
##스로
##자를
##줄알
영화였습니다
ㄷㄷ
나에게
누군
만큼
못보
이연
스토리에
전체적으로
또한
스케
하는데
##리아
나머
사건
어렵
이어
잘만든
피해
##소한
##자는
##하겠
명작이다
너무나도
##드가
반전이
8점
cg
같네요
애들이
여성
##르고
이야기가
여자가
제작비
가득
어찌
좋았고
마음을
4점
가끔
그려
그럼
돌려
밑에
##치게
이런게
지난
##인거
##완전
재밌었어요
80년대
먼저
뭔지
자유
잘생
##이코
아니면
그렇고
##상을
##그라
드라마가
대단하다
##하면서도
케이블
그랬
졸라
##화가
##였습니다
##리에
아니지만
별로다
귀여운
##he
##별로
소재는
잘봤습니다
정치
##처음
만들지
감사합니다
성공
외국
##인은
##려면
##감을
드라마를
이영화가
모습을
##아니고
않을
짱짱
##인을
##로는
##해주
##걸까
지금봐도
자신의
아닐까
러브
미래
본다
##마저
##놓은
생각한다
다소
황당
##정을
거기
라고
삶을
아놔
않았다
##이에요
##가요
##였던
##대박
##났다
짜증나
카메라
7점
눈이
예전
##지못
##었네요
##하던
##져서
영화중에
매력적인
부분이
인상깊
취향
##명작
##많은
왜이렇게
메시
못하고
안맞
철학
##한다는
##었나
##장이
##과는
##하는지
감동적
허접한
심리
아는
않음
##만의
##신이
영화이다
OST
나를
다만
안나오
저예산
##어진
##많이
좋았음
확실히
##좋고
##로서
##수있는
##분에
어린이
보지마세요
ㅅㅂ
심심
##한듯
##해주는
나온다
같습니다
남아
실패
해주는
##했으면
##모습
사랑이
남주
눈을
미소
알겠
젊은
##사는
##봤어요
##든다
나서
##있는데
##번째
##일뿐
##절한
##면서도
중간중간
슬프다
대충
##할듯
영화보고
속편
의외
##아아
##성애
##실망
내용을
역시나
##사람이
느껴지는
낭비
있었던
##or
##리도
##내요
##최악
##영화에
사람을
##지도않
##고싶다
감탄
##심히
다가
알아
하루
화가
##수도
##세계
좋았는데
세상에
손발
와닿
##새끼
스토리와
제작진
감정이
어이없는
##나온다
고민
군대
느낀
종교
한계
##닝타임
스토리를
감동적이고
프로그램
여전히
어이가
했지만
##물이
##스럽게
어색한
##만으로
##스는
액션이
##재밌게
5점
결론
과연
굿굿
글쎄
리뷰
유일
##움을
##시켜
##보다가
아닌데
아름답고
3편
넘어
든다
시도
예쁜
호러
##저럭
영화지만
맞는
아저씨
했던
##한건
##었을
그들의
끝나고
드는
오락
##지컬
##좋다
##어라
처음이다
독특한
같음
해준
##더만
나오고
굳이
이하
##사를
##려다
연기에
드라마는
액션은
주인공의
##사람들
##지않는
내생
보이는
사극
슈퍼
이기
조폭
##하세요
##명이
##럽다
##없어서
##순간
소재를
연애
##해보
##개봉
##되지
이유가
유쾌한
겁나
기본
난다
라이
특별
##이게
##거냐
##럭저럭
기대를
가서
일어
##이건
##니아
##터리
##하기만
볼때마다
살짝
슬픔
용서
평생
해주
##식으로
재미를
사랑하는
연예
찍은
##보여
이건뭐
짜증나는
매력이
##더라도
흥미롭
떨어지는
스트
싸이코
에휴
##기억
##소년
##영상
##웃음
보는게
기분이
그럭저럭
미스
분노
블랙
소녀
##만드는
연기력이
아름답다
순수한
##였어요
##있네
재미있음
레이
마라
적당
후속
##구려
##하다는
하나하나
그런가
아까워
말이필요
평범한
남는다
모자
사기
상처
시원
전에
##다지
##가가
##했을
##겟다
##추천
영화냐
10년
사랑과
##하지마
우리가
음악이
소름끼
그걸
깔끔
더이상
스포
시선
역할
##서야
##았습니다
있다면
추천합니다
어릴적
통해
##있음
##남자
사랑에
진심으로
보러
섹시
자막
##는가
##들고
##최고의
고전
무지
산만
저렇게
##지네요
##으론
##래기
작품성
나왔으면
소름돋
귀엽고
미치
봤다가
##말로
##학교
##았어요
##끼리
티비에서
전기세가
ㅠㅠㅠ
가진
아침
채널
혹시
##와르
##공포
##버렸다
##위해
정말로
안되고
무협
##디어
##할까
##먹고
보기엔
음악도
이정도면
난해
부끄
비극
안하고
포장
힐링
##이의
##이크
##시아
##나올
##른다
##레스
##즈니
연기와
생각합니다
##이라서
##한다면
몰입이
반전도
재밋게
공감이
고생
뮤지컬
봤었는데
어제
흐름
##인간
##있어요
##장에서
##학생
재밌었는데
감동과
볼만함
신선한
막판
##주얼
##었네
##었어
##듯이
##트가
재밌습니다
추억의
다큐멘
개판
그지
몸매
안됨
영환
올라
##씨가
지금은
수준이
등장인물
이연걸
거짓
되었다
볼수록
북한
사는
일상
폭력
##ou
##그러
##원이
##효과
##으로서
잼있게
보시길
쓸데
없지만
오버
현대
##아라
##화를
##대는
깊이
놀랍
동물
아련
압권
열심히
표절
##구하고
##하려는
##분이
##싶은
재밌었음
보고싶다
가볍게
오그라
이때
##기의
##an
##대가
##안되
##까진
처음엔
아이들
제목이
슬프고
그렇다
해피엔딩
11
김기
나타
남녀
되게
있습니다
##나가
##알바
##에서의
필요없는
여기서
어렸을
불쾌
소장
지구
희생
##이터
##었지
재미없네
만들어진
##더라구요
이유는
스케일
30
눈빛
동생
말로
보시
심각
악역
전투
좋습니다
태어
##기로
##무비
지루해서
그립
보이
설레
수도
크게
포기
형편
##다운
##드라
##오빠
##버리고
연기자
시간을
현실을
소재가
상상력
디즈니
재난
정서
조잡
##했다는
##명의
##무서
배우의
몇번을
스티
있나
평이
표정
홍보
##같음
##던지
##줌마
지루하지
연출도
그것
까지
아나
퀄리티
하네요
##소재
##봤음
##티비
##영화도
소재로
언제나
멋지다
30분
그다지
반성
쉽게
##시킨
##버렸
영화보는
아닌듯
결말도
감명
게다가
그린
부터
스크
인터
좋을
하면서
할말
##리기
##들에
##웠음
##돌아
##지않은
떠나
말을
싫다
씁쓸
악당
올해
액션영화
필요한
그렇다고
강렬
같아
나중에
벌써
봤으면
삶의
새벽
선생
이루
통쾌
##마음
##반전
뛰어난
국민
끝나는
드러
시시
오랫
이쁜
##도없고
##가능
##해준
##느라
##따라
생각나는
18
니콜
없나
역겨
##속에서
##겹다
##친다
사람의
좋았던
일본영화
초반에
나가
외계
풋풋
##나이
재미있네요
##지않고
##하시는
두고
말할
받아
에이
##마지막
##한것
##상이
##류의
##꿀잼
##줘서
재밌네
##까지는
인생을
출연진
건지
둘다
비주얼
의문
##라스
모든게
봐야할
헐리우드
가까
의심
일반
펑펑
##수는
##ㅋㅋㅋㅋㅋ
만들고
결말은
엉성한
마무리
괴물
돈아까
싶어
있지
좀더
##지말
##히는
##나와
##안에
필요없다
능력
드럽게
무시
본방
싸구려
있게
##지의
##구니
##자단
##나왔
##겼다
배우들도
누구나
뒤로
성인
시사회
암튼
일부
##이니
##와는
재미있었다
다시한번
마이너
00
광고
방금
섬세
죄다
##이유
##해진
##사의
##봣는데
##트콤
##표현
##장면이
보고싶은
독립영화
되고
시각
않게
어휴
##bb
##자고
##있어
##거운
영화라는
##사람은
##보는게
할말이
##수없는
##독교
##ㅉㅉ
##인가요
인생의
웃기고
몰라도
무언
발전
섹스
시걸
어머니
죽여
쵝오
특수
##시에
##중의
##하다가
##하기도
어려운
깨닫
남을
살다
에피
##이자
##이를
##이며
##로도
##하려
##거리는
##두고
시간가는
좋아서
이해할
현실적인
이제야
작가가
시대를
단연
신경
왜케
있어요
존경
하이
##아님
##ad
##식을
##란다
##불가
10분
무엇을
##자체가
단순한
##10점
견자단
로그
불구하고
우주
##이해
##연기가
나옴
분들
쓰래기
연결
이뻐
##가락
##만점
##관계
##하신
##4년
##줘야
##영화라고
이거보고
몰입감
##시간이
낮아서
떠나서
맨날
베스트
산으로
생애
아픔
##을거
##수의
##됩니다
아직까지
##재밌어요
옛날에
뻔하고
청소년
##이션
##도가
##on
##하셨
##드의
##학년
##버리
##영화임
느낌을
##배우들
정신병
점수를
고통
나은
느와르
않아
외모
##져요
사랑스러운
눈물을
##더라면
긴장감도
0점은
다니
단지
딱히
때문
못했다
밋밋
스스로
##마스
##의미
##하구
##르노
##무섭
##랍니다
생각없이
지루할
김기덕
3D
대표
상업
이따위
전반
##성에
##한다고
##봐요
기대안하고
영화에요
노답
되지
마세요
슬퍼
아들
안봤
한데
##이후
##했는지
##함에
10자
사랑의
볼만하다
ㅇㅇ
공부
다양
더불
러닝타임
명품
발로
생생
세월
인도
잊을
타임
##었는지
##겠음
##계의
생각하고
좋아할
아이돌
잔잔하고
전문가
덕분에
많다
있어야
집에서
##좋아요
##아니다
##하라
##하려고
##처구니
##99
##아니라
이쁘고
탄탄한
고등학
국내
대부분
싶네요
없는데
와우
은근
있네요
주변
처럼
##인들
##로우
##한지
##걸로
##내가
##점도
##았고
##하다니
남자가
13
없다는
##아가
##만화
##겠네요
##물을
이런영화가
시간아까
재밋다
에피소
로그인
끝난
무비
바뀌
보니까
볼게
영국
우와
코난
##at
##으로써
쓰레기다
하는지
헐리웃
기독교
내려
놀랐
문화
복잡
울고
찌질
흔한
##는건
##ar
##전쟁
사랑은
대사가
아쉬움
마이클
안타깝다
1시간
반복
보았다
봣는데
비현실
시트콤
아류
안돼
작은
##만드
##했네
##작가
##온다
##따구
만든다
##재미없
게이
더러운
못할
뭉클
아역
제이
쩐다
찝찝
최강
##정신
##대사
##거임
##과의
##되서
##무슨
최고입니다
작품을
의미를
즐겁게
의외로
갈등
검색
과장
남겨
동안
묘사
민망
발견
빼고
않지만
어처구니
있으면
조용
한참
##럽고
##우고
##씬은
##연출
##집니다
##셔서
##BS
신선하고
멍청한
007
높다
눈에
떠오
설마
신파
연속
울었다
##지어
##가지고
##거면
##봤던
빠져들
끝날
말하는
무척
믿을
본영화
지켜
편견
허세
히어로
##에만
##봤습니다
##호가
##떨어
##석이
재미없어요
기대했는데
##리스마
더불어
경험
관심
극치
새롭
왠만하면
해리
##는영화
##으니까
영화인듯
가져
같아서
거슬
기가
본다면
속에
이정
조선
죽은
##스릴
##영이
##어주
##나옴
##았지만
##트맨
##양이
지루하게
7점대
겨울
안보고
우정
위대한
직접
##도안
##려요
##작이
##나다
##결말
##영화라
작품이다
아깝지
남자의
아쉽네요
8점대
미드
어우
짝퉁
##인트
##성은
##거같다
##봅니다
##쳐서
생각나
이해하기
몰입해서
##스러움
연기력도
표현한
영화였어요
초등학생
the
고마
그것도
다룬
볼거리
불러
아줌마
앞으로도
학생
##지금
##가를
##bs
##씨의
영화들
장면에서
가슴아
느끼는
무섭다
이후로
##ing
끌어
로봇
바꿔
자살
필름
##이로
##에대한
##ie
##우기
쓰레기같은
아이가
음악과
##재밌음
가면
높아
미모
박진
여행
이도
조합
주성
투자
##관이
##하진
##리언
##시작
##그리고
사랑이야기
완전히
모르겠고
결과
꿈을
레전
보길
보긴
빼고는
오바
재미있었어요
우리는
원작의
따뜻해지는
학교에서
잊혀지지
ㄷㄷㄷ
기술
깜짝
똑같
망쳐
먹고
박수를
제로
치밀
타이
특이
##가족
##였지만
##만을
##겠어요
##거라
##오글
##받고
##엄마
##쳤다
인간이
흥미로운
유쾌하고
즐거운
레알
못해
뭐라
방법
어지
웃김
인내
할까
##이스
##간의
##었을까
##미가
좋았을
우리의
힘들다
손발이
끝이
봤더니
스파이
슬펐
않나
카리스마
##냐고
##하겠다
##했네요
##긴다
보고나면
##재미없다
한번쯤
웃음이
시즌2
##시키는
그거
달달
로버
비판
영혼
이럴
좋지만
죽을
지겨
할머니
##해지
##왜이
##버리는
재밌다고
좋아하는데
##0000
알바들
감정을
개연성이
늘어
들었다
많아
이용
정의
##ll
##키는
##본영화
생각하는
##연기도
살고
야동
커플
##ov
##소설
##영환
##것들
##려나
##드립니다
##유치
##식의
##느니
평점보고
나오면
이제서야
##재밌다
##ㅠㅠㅠㅠㅠㅠㅠㅠ
김민
보인다
잠깐
좋게
참으로
포르노
##애들
##긴한데
재미와
유치함
짜증난다
행복한
역대급
스크린
6점
가벼
교육
남편
넘치는
대중
모를
아동
악마
없었던
챙겨
패러
풍경
##라가
##아버지
##정은
##것만
##했나
##임을
##버그
##체가
다시는
좋았지만
하나의
이유를
모르겠지만
주성치
개뿔
김수
많고
못한다
반개도
안본
않을까
움직
이소
주말
##용으로
##갔다
##갈수록
이런영화를
감동의
좋았으나
보여주고
##시간에
어린시절
시간가는줄
멋있다
못생
보며
아닙
##요일
##로만
##자나
##대를
##겠습니다
##부족
##엇다
##VD
지루했다
작품은
명작이
유치하다
무섭지도
잔인한
좋겠어요
강력
개막장
관한
둘이
아기
착한
##니깐
##소리가
##테일
##했어
##버스터
재미잇
사람들의
감히
겨우
기발
깨달
대본
대해서
따로
보통
봤을때
여태
올려
응원
이민
인기
##사이
##적은
##살다
##야말로
좋아해서
1점준
현실성
캐릭터가
그렇지
개연성도
연예인
21
무리
범인
빌려
신비
에서
예뻐
일품
##주기도
##아주
##사수
##루스
##명을
##캐스팅
##받은
##함은
##년전에
##먹는
장르가
중요한
다큐멘터리
내면
동성애
드림
올리
욕망
자주
죽이고
##기다
##om
##그렇
##없네요
##되었다
##♡♡
이해안
보여줬
가슴에
지나치게
그건
똑같은
만나
볼수있
세련
아예
아픈
영어
##기에는
##였고
##와의
##캐릭터
##괜찮
영화제
긴장감이
느껴진다
웃기지도
왜이래
말도안되는
레전드
담아
당연
설득
어쩜
일이
잘하고
점수가
젠장
##있나
##비디오
##감도
##놈들
##그대로
평점조
##들이랑
10점을
모르게
남자주인공
있었지만
보지마라
199
그녀의
초등학교
DVD
데이
도전
드립니다
떠올
몇몇
색다른
없지
짜임
클레
힘이
##요소
##했다고
##평점이
부족하다
노래도
답답하고
진부하고
이쁘다
새끼
숨겨
심하게
양심
없어요
제시
하늘
##지말고
##하던데
##보네
##운드
##버림
##근데
영화네
스토리의
##들이나
감동적이다
##보다도
전개도
문제가
ㅋㅋㅋㅋㅋㅋ
류승
빈약
삶에
싶을
여름
우려
인해
조니
할리
##라인
##해진다
##토록
##되네요
##얘기
재미없게
한국영화는
인상적이
가치가
전설의
영원히
0점이
간다
바꾸
비밀
뿐이다
수고
야구
제임
##기분
##성의
##속의
하는거
주인공은
원작이
##장면은
괜찮은데
자신이
보았습니다
안타까운
40
변태
보자
봤을
상관
성격
이것이
##저도
##역시
영화보면서
모두가
싶은데
소름이
##지도않고
거기에
높게
못함
속에서
오로
테러
화끈
##도는
##생활
##있어서
##상황
##레딧
##언니
##★★
생각함
연출과
ㅎㅎㅎㅎ
보여준다
정도의
잼있어요
재미도없고
##000
작가님
관객을
한심한
유명한
감흥
그만큼
그당시
달라
대화
돈을
미스터
베드
없습니다
위해서
이다
이끌
짝이
해라
##로써
##동생
##비가
재밌던데
내가본
있는지
##지마세요
아름다움
여러가지
뛰어넘
알겠는데
공짜
비하면
심오
알수
의리
인디
##려다가
##씬이
##문제
##원의
##겁니다
##머리
연기잘
아까울
막장드라마
오랜만
모르겠음
자신을
오래된
##것같아요
이래서
기회
말아먹
방영
보려고
부부
어두
있구나
잊지
작위
첫사랑
해결
##만은
##음이
##신분
##우가
##포터
##5년
##답답
최고임
다시보고싶
나오지
##사람들은
세상을
분위기가
##♥♥♥♥
실제로
깨닫게
볼때
블록
사진
살면서
신고
애들은
치고
##이기
##이들
##니당
##인과
##러워
##사건
##봤지만
##그리
##바이
##연이
##무지
마지막까지
명작입니다
수준의
답답한
시청률이
예쁘고
감명깊
패러디
제임스
받을
심지어
안쓰
집에
최초
##기지
##세기
##추기
배우를
하나같이
반전은
M창
sf
둘째
무술
배역
보다는
안볼
유지
장애
전율
조작
최민
충실
한숨
##인것
##아나
##장을
##보니까
##설정
##았을
##하고자
##하는건
결말을
여운을
잼있다
킬링타임용으로
두번째
나머지
결코
남은
낮게
만한
빠진
않네요
있었는데
##라기
##주가
##래도
##은영화
##눈물
##남는
##부작
##력을
정말이지
이런건
##사람들이
이상하게
가슴을
떨어진다
2편은
어쩔수
결정
단편
볼거
부자
분들은
선동
안습
열받
잔뜩
잔혹
핵노잼
##했으나
##re
##상은
##심으로
##겨서
##년의
##멘타
기대이상
여자의
소재도
시리즈중
노래가
##감독이
훈훈한
최근에
죽는줄
에피소드
70년대
구성이
기자
낚시
다이
도망
사고
살려
야한
어째
오빠
잘어울
죽이는
하네
##소녀
##리카
##미네
##때까지
##트의
생각나서
하는게
만들어도
억지스러운
훌륭하다
어이없
##좋아하는
기다려
다양한
짜임새
기준
모험
아래
자식
집착
팬이
##인들이
##로의
##치가
##보자
##통령
##티브
생각할
생각하면
##다는걸
##다는거
##인데도
아무런
무엇인지
무서워
ㅉㅉㅉ
비디오로
시즌1
느낄수
식상한
감정이입
스트레스
답이
등등
무한
부실
브루스
소소한
스페
연극
질리지
##해주세요
##드시
##역사
##계속
##왔다
10대
만들다니
처음에
20대
20분
극장가서
몰입도가
당신은
##스타일
스티븐
아닙니다
디테일
매일
뭘까
봅니다
봐줄
장국
정작
지났
찍어
한명
할수
##게요
##나와서
##세포
##종일
영화자체
최고였다
연기력은
자체는
크리스마스
갖고
고맙
담배
대놓고
열정
웃고
잼나게
제외
헤어
##이었음
##좋음
##르게
만들면
별로임
느낌의
짜증나서
따뜻하고
시청자
돌아가
나쁘지
14
끔찍
다를
다루
바랍니다
서부
수많은
안에
언니
이드라마
제니
탄생
해석
했으면
##지면
##만다
##로드
##어여
##감은
##능력
##얼굴
##씨는
##영화입니다
재밌을
재미없었다
이야기는
원작에
한번도
흥미로
그저그런
추억이
##레이션
지나도
느꼈다
5분
길게
꼬마
다크
다섯
비행
빼면
손에
재능
형사
효과
##는대
##지다
##1점
##것같은
##건만
##극장
재미있습니다
명작을
의미가
약간의
어설프고
살다살다
50
거부
끝났
낚였다
바다
유아
##지요
##같고
##하군
##장난
##때문
##퓨터
영화와
한국인
반전을
보지말
소중한
거짓말
블록버스터
22
국가
넘게
달리
데리고
사투
있던
주기도
파워
##이였다
##관람
##해주고
##시즌
##장한
##서는
##편은
##애가
##빼고
##잡고
##형래
##형님
##강추
진짜로
생각했는데
감동은
처음에는
##없는영화
매력을
많은걸
##ㅎㅎㅎ
1편이
1편은
##파이어
막판에
클레멘타
##미네이터
개념
놓고
당연히
듣고
들고
많아서
신의
안된
예능
이병
조카
혹은
##기전에
##박한
##스에
##나네
##신을
##번은
##부를
##과서
##레인
##함의
##든지
##티즌
영화화
아니야
연출은
##배우가
##만큼은
##ㅜㅜㅜㅜ
역사를
주제를
엉성하고
유일하게
새벽에
특수효과
##스릴러
로버트
가르
그자체
나에겐
내게
만남
먼가
못봐
뭐하나
본지
살린
시끄
아내
웃겼
위로
이야
이라는
정확
주기
##되면
##줄이야
##웠지만
##누나
##묘한
이런영화는
##적이지
##나오고
##생각없이
살아가는
##내용이
배경음악
엄마가
어느정도
집중이
##인줄알
소설을
여주가
다운받아
본방사수
강한
근래
독일
러시아
만약
무료
보다니
시키
적당히
정우
짧은
케빈
하아
형님
##아는
##성과
##리면
##거든
##어용
##루즈
감독을
여자주인공
시리즈는
부분도
어울리는
태어나서
제이슨
이소룡
조니뎁
44
뭐니
보던
본게
생활
애기
우뢰
으리
이보다
일깨
잼잇
정체
조절
틀어
하여
##면에서
##아쉽
##대해
##하길
##겠다는
##있었다
##웠어요
##받는
##복을
영화인가
##으로만
최고로
보기에는
영상이
많은데
떨어지고
아름답게
만들었는지
교훈을
한편의
케이블에서
b급
가지
감각
김혜
때려
명화
목숨
배트맨
봤을까
언젠
적어도
##라의
##이어
##vd
##en
##해지고
##zz
##어리
##어버린
##상에
##냈다
##배경
##제로
##영화인데
재밌다는
생각으로
배우들은
이상의
영상과
나름대로
친구가
##부분이
좋겠네요
돋보이는
참신한
부모님
그립다
가벼운
교과서
그야말로
낚였
동시에
디워
무게
별반
아버
안가
임팩
참나
폭풍
하다가
##이에
##정의
##리네
##상의
##신은
##개는
##바로
##웠습니다
##버려
##커플
##엇는데
영화만
마지막이
봤는데도
한국에서
##배우들의
봐도봐도
아쉽지만
웃기다
##해야지
엔딩이
이딴걸
포스터가
여러번
ㅋㅋㅋㅋㅋㅋㅋ
##거같아요
놀라운
말하고자
일부러
마이너스
1위
be
내돈
동양
로코
머리가
본거
빵빵
수입
심형래
쓰고
앞뒤
익숙
적절
짜집
첨엔
터미네이터
플롯
하길래
##치노
##했지
##어가는
##드를
##오브
##빠진
##그만
##짱짱
##야할
##피스
##갑니다
##덕화
##하고싶
배우도
재미없어서
하나로
한국의
10점주는
이해를
여자는
주인공들
아까웠다
인생에
##감독의
어색하고
집중해서
단순히
초딩때
피해자
쓸데없이
낮네
됩니다
두려
또다른
새로
쓰는
이따구
자동
잠시
중에서
책을
##이쁘
##인도
##래곤
##음을
##ut
재밌어서
내용과
기대했
액션을
괜찮음
장면도
모든걸
재밋어요
가족의
##건가요
잘봤어요
##년도에
특별한
숨겨진
감안
다신
담겨
따분
못하다
바이
싸우는
아우
애매
영향
위험
읽어
있네
잘하는
중학교
즐겨
컴퓨터
케릭터
프레
##이였
##이제
##ver
##리며
##시오
##겠죠
##있습니다
##보이는
##점에서
너무도
##으로는
별로고
이상하고
있다니
찾아볼
여러분
궁금하다
볼수있는
결론은
아류작
해리포터
제니퍼
6점대
그동안
받은
봤네
주지
주윤
추격
##다큐
##이렇게
##도아니고
##es
##it
##나니
##봤네요
##문화
##긴하지만
##중훈
##선생
##직한
##쓰고
##잖아요
영화같
##하는영화
아니라고
괜찮다
출연한
귀여워
여주인공이
내생에
놀랍다
주윤발
3번
개성
갠적으로
남네요
낮지
망한
실력
싶어요
유발
자세
착각
힘내
##데이
##도를
##하러
##시면
##했을때
##오오
##후의
##프닝
##악한
##취향
##쟁이
##는데도
배우는
아이들과
괜찮았다
만든영화
짜증만
시나리오가
주제가
##하자는
누군가
인터넷
1인
dvd
you
갑니다
같고
과학
꽤나
끼워
낮아
배신
손색
애초
이수
이은
중독
지겹
하하하
확인
흑인
##라라
##정화
##러스
##있네요
##드리
##보지
##노래
##햇다
재미로
##ㅋㅋㅋㅋㅋㅋ
아니지
다시보니
보기에
짜증남
매력적이
제목만
잼있음
아쉬움이
##아까운
##전개가
유일한
고등학교
우뢰매
C급
거북
나랑
난잡
남기
높아서
달콤
매니아
몇년
반드시
부탁
사운드
애국
자랑
중2
책임
추리
호기
화장
##는듯
##아치
##기까지
##리한
##프다
##뻔한
영화인지
##영화보다
시간아깝다
최고의영화
일본은
소재와
##스럽지
##만들어
##어야지
##고싶은
한국영화의
전체적인
영환데
오랫만에
장국영
30년
낮다
따위
말았
서울
서양
않아서
어든
유럽
탈출
편안
하품
한다는
홍상
##만도
##만하다
##한국
##여행
##스키
##드로
##함도
##낸다
##끝까지
##었다는
사랑해
지금의
##에게는
이해할수
여자들
공포물
마음으로
1편보다
수작이다
전쟁의
불쌍한
예쁘다
리얼리티
혹시나
관련
네티즌
로빈
맛이
미쳤
밀려
박중훈
보았는데
부르
분들이
안될
에효
이준
있다고
클래
판단
하하
했음
##이도
##하더라
##치곤
##나네요
##부는
##버스
##강호
생각도
사람도
이게뭐
나오네
1점은
10점이
아깝고
##부터가
아무도
불쌍하다
불편한
잊혀지
일깨워
공간
다보고
대통령
멋있는
실험
싸움
아들이
압도
엑스
웃으면서
위대
이토록
타고
폐지
##성기
##었구나
##미는
##게임
##is
##일듯
##제가
##모두
##속으로
##팔이
##하는것
감동받
사랑해요
액션과
여자친구
장면을
##연기는
현실이
나왔다
##♥♥♥
몰랐다
후속작
강렬한
어우러
ㅠㅠㅠㅠ
끝에
마약
배급
빵터
아놀
아진짜
외로
자본
저급
진리
프리
##같아
##자와
##있던
##싸움
##개가
##후반
##느껴
##왔는데
##혼자
##굿굿
재미없다고
시간만
시간에
시간때
인생은
이제는
##메이드
잔잔하게
아까운영화
어른이
##하지마라
극복
꼭보
꿈꾸
나이가
도무지
되네요
땜에
리즈
맞춰
보내
빵점
삶이
싶지
아냐
안봐도
없게
없었음
이성
인형
호구
흐르는
##라노
##이여
##지현
##인건
##으려고
##주일
##여운
##하거나
##적임
##은듯
##어이
##매력
##중에서
##줄은
##더빙
##선을
영화이
10년이
짜증나고
봤다면
떨어짐
사실을
만화책
##OOO
실화를
##보고싶다
다르게
희망을
2탄
개노잼
기존
꼭보세요
당황
루즈
멋지고
못미
본건데
빠른
알겠다
우연
임창
장진
최소한
평균
하정
희대의
##지나
##진심
##리나
##죽는
##드만
##민이
##웃김
##또한
##싫어
사람들에게
다시보고
##는거야
영화라니
영상미가
쓸데없는
것에
그것이
나레이션
다세포
무난
민폐
반담
받는
부정
사무
소피
안들
없나요
잊고
정상
##으신
##구성
##as
##스크
##12
##은거
##림이
##패스
##엇음
마지막회
기억나는
20년
재밋음
모르겠네요
궁금해서
얼굴이
##하지않고
사이코
##그래도
허술한
스포츠
이도저도
2번
of
가고
각색
극단
무너
묻어
뱀파이어
생긴
아파
안간다
열연
울면서
울리는
줘야
집어
한개도
헛웃음
황당한
흑백
##이프
##지네
##인들의
##도의
##주면
##아저씨
##스포
##사에
##있을
##들한테
##때매
##보영
##보내
##안됨
##세여
##식은
##중이
##전이
##전을
내용인지
재미있는데
감독도
사랑합니다
아무튼
짜증이
스릴도
억지감동
왜이러
영화였음
귀엽다
개그맨
영원한
하나하나가
할리우드
이병헌
16
9점대
기타
김태
김치
끌고
냄새
부담
선물
어떨
여친
줍니다
짐캐
컨셉
폭발
흡입
##가에
##테러
##희가
##해선
##자들의
##사와
##장의
##습니까
##들여
##부로
##차별
##못해
##버릴
##트를
##잡을
내용의
내용에
##같은영화
일본의
볼만했다
현실과
인간은
시대에
이름을
자극적인
이뻐서
ㅠㅜ
김희
나무
달려
담담
대신
때마다
맞지
몽환
뭐하는
박수
별하나
빛나는
빨갱
사상
없으면
예수
오브
요새
으로
읽고
저평가
즐길
첨부터
키스
평소
##인지도
##주연
##진이
##아쉬
##때는
##유리
##뿐이다
##졌음
##출연
##므로
이런류의
작품입니다
한국판
10점만점
##했다면
괜찮고
괜찮았는데
반전에
정도면
전개와
미국의
세상이
들어가
설정이
잘못된
어쩌면
뜬금없는
Good
갖다
개콘
고양이
그것을
글고
나네요
도데
두근
드디어
듭니다
망치
박신
받고
밤에
벗어
생에
선정
수면
잤다
장동
좋다고
탁월
파괴
할아버지
허허
##아내
##들로
##게하는
##개그
##부가
영화나
생각난다
##었다고
감독과
기대없이
유치해서
정도가
##기도하고
제목을
언제봐도
점수는
포스터만
이름이
다르다
가득한
평점조절
공짜로
고어
고뇌
돈내고
드래곤
맞아
바탕
본듯
왠만한
절망
찍고
한방
혐오
##이든
##구가
##할만한
##대단
##리네요
##있지만
##들끼리
##나의
##루토
##위에
##쓰는
##허접
재밌었던
최고봉
아깝네요
매력에
인생이
시작부터
장난하냐
포스터에
믿고보는
살인마
어렵다
ㅎㄷㄷ
개똥
겉멋
불가능
빛을
세번
암걸
없다고
오우
오프닝
자기가
적절한
지겹다
하시
환경
##좋았다
##마자
##였으면
##로로
##히고
##나도
##우의
##원은
##모로
##느끼
##납니다
영화야
재미있어
마지막엔
##ㅎㅎㅎㅎ
봐야지
작가의
##감독님
당시에
않았던
##거같음
내생애
역겨운
자동차
25
가정
개나
과대
깊게
늦게
담백
뒤에
라스트
망가
망친
몰라
사용
안보는게
왜곡
원조
유행
잠이
재개봉
적당한
조화
죄송
##ow
##의를
##자들이
##리와
##했을까
##어디
##임에도
##분은
##분들은
##남기
##애들이
##딩때
##님들
##무시
##든가
##트는
##둥이
##불허
##줬다
##몰입
##ㅋㅋㅋㅋㅋㅋㅋ
##배우의
##스러워
추천하고
공감도
그렇지만
무엇인가
##아까움
탄탄하고
라이언
전반적으로
은근히
제시카
못봐주
녹아
동네
로드
말자
말투
무겁
무거운
뭐고
반대
유덕화
일베
천국
최소
피터
##진않
##아빠
##al
##리엄
##시청
##서도
##ic
##드림
##감과
##없지
##저리
##준호
##웠고
##더더
##3년
##슨이
##2년
##7년
##싫다
##답니다
##께요
기대가
나오는데
느낌은
영상도
##재미없음
##는거지
요즘은
##생각이
친구랑
##내용도
배경이
TV에서
진지하게
다행이다
외계인
애초에
가히
강간
나중
도시
매미
명복을
무간
뭐라고
비호
알파
양아치
어리
인종
일으
파격
하도
힘을
##주기
##좋게
##할지
##대고
##하균
##없나
##되게
##까요
##위원
##빨리
##났음
재미있었음
재미있었습니다
볼만합니다
공감할
가족이
어디로
조금은
점수준
전쟁영화
시대의
만들었을까
##ery
질질끌
못보겠다
제작비가
풋풋한
무언가
어두운
짜집기
가수
김지
담은
담긴
디카
먹는
버려
베리
싶었다
안어울
안무서
앞에
어거지
없냐
잊을수
좋을듯
줄리
짜릿
황정
흔들
##아지
##아노
##가슴
##박죽
##od
##ot
##하니까
##치의
##죽박죽
##있지
##어의
##발견
##판이
##되나
##점수
##질않
##란티
##았으면
##먹을
##롭고
이해불가
아깝네
느낌이다
괜찮게
##배우들이
실망이다
엄청나게
대사도
봐야하는
2편이
##아닌가
##모르고
100점
의도가
도데체
강동
거품
기획
만난
매끄
목소리가
보라고
불안
아담
영구
웃기는
이만한
절로
절대로
정보
즐기
축구
트랜
##지에
##가리
##간에
##관에서
##스케
##하디
##겠는데
##적으론
##nd
##일을
##즈의
##질이
##프리오
##졸작
##낮은
##졌던
##슨의
##법한
##앗다
##웨이
드라마의
만들어서
기대이하
##라는게
않은데
시작해서
무섭고
##내용인지
198
당신이
소중함을
보시면
가까운
둘째치고
홍상수
그들이
깨알
말그대로
명불허
실감
엑소
역량
이동
이란
이렇
잠들
점이
좋네
죽고
찾아서
##같아서
##스와
##11
##자리
##했었는데
##고생
##있으면
##물로
##되는데
##프고
##웃기
##선이
##형제
영화평
사람이라면
사랑하고
마지막장면
없는게
연출력이
명작은
아이들의
짜증나게
##지않는다
캐릭터들이
인상적인
유쾌하게
##레이드
교훈도
홍콩영화
진지한
만점에
오글거리는
요소가
거기다
말고는
망할
명장면
미녀
버리고
분량
브래
삶과
심장
안본다
졸업
하며
한시간
형제
##인게
##으리
##마이
##여진
##하실
##시원
##적이라
##장르
##그랬
##일의
##중반
##았네
##랜드
##받을
##더맨
##위한
아니었다
##있는영화
괜찮았음
정도는
한번더
수준을
감동적이네요
더빙이
충격적인
순수하고
오글오글
##으면서도
산만하고
선생님
설득력
류승범
화장실
##란티노
객관
넘넘
말아야
매번
부산
속았다
스피
이지
자고
잘한다
줄수
진한
치유
포인트
풍자
후에
##라에
##이름
##지부
##성우
##가네
##정쩡
##들러
##공감
##때도
##오래
##신의
##모를
##야한다
##랐다
##졌어요
##먹은
##20
##답게
##뚱맞
영화예요
드라마입니다
좋았을텐데
아이언
공포를
아무생각없이
보기가
만들어라
보게된
배경으로
귀여움
##쓰레기영화
흘러가는
다운받아서
아프다
##ovie
90분
갔다
건가
격투
고독
공중
길이
나을듯
나루토
단어
뒤죽박죽
묘한
무식
뮤직
변화
비록
소통
시종일
신하균
암울
예측
첩보
키아
한지
##다르
##이죠
##도로
##같아요
##귀여
##워즈
##비슷
##일러
##까지만
##란한
##됐다
##봐야지
##셔야
##잖은
영화속
최고최고
괜찮네요
현실은
만들어낸
어이없다
않았지만
이것보단
보았던
##재미있어요
생각해보게
가능한
아마추
뜬금없이
블랙코미디
하이틴
2는
EBS
과정
난리
단체
모욕
뭐임
별거
보단
볼려고
빼곤
싶어서
싶었던
아바
어정쩡
이별
잊지못
절제
조차
중학생
판타
한가
##에다
##자로
##것에
##보긴
##민의
##우스
##없을
##제작
##필버그
##승전
##왕국
##함께
##잇는
##줬으면
##갈때
##탈출
##늦게
영화인줄
최고네요
좋아하지만
10점준
모르지만
##정도는
애니는
모습은
흥미를
조금만
기분나
떨어지
뻔한스토리
느끼고
장난치
알았음
2점부터
허무한
나머지는
소장하고
세월이
놀랐다
부자연
알파치노
말씀
모른다
배꼽
보라
소화
송강호
안좋아
애잔
왔습니다
왠만
우디
우선
잠을
쯧쯧
찾는
칭찬
한순간
향연
호불
##기와
##시가
##장애
##분들이
##살이
##살아
##부의
##프레
##역할
##못한
##코메디
##증이
사람들을
다시보기
액션씬
아이디어
현실적이
소재의
##하기엔
##드라마가
연기력에
캐릭터도
최악의영화
##생각을
어이없음
답답하다
결국은
만들었나
영화라서
##하시고
당신의
에로영화
##시대에
영화보다가
형편없는
감명깊게
비호감
디카프리오
명불허전
시종일관
th
고문
권상
기괴
끝나서
나음
남의
놀란
다녀
닥치고
따름
밑도
바닥
반영
볼까
상징
선사
소년
승리
어떠
엽기
원주
음식
음향
이나
이승
창피
하기
##이요
##이리
##ay
##소가
##만족
##스틱
##1년
##해져
##영의
##할뿐
##대에
##상영
##분위
##타고
##보구
##보네요
##유발
##제목
##후회
##노답
##모든
##초반
##았네요
##못하는
##9년
##까지도
10번
##라고요
별로였다
##지않다
코미디영화
개봉당시
느껴졌다
세상에서
장난하나
언제까지
ㅋㅋㅋㅋㅋㅋㅋㅋ
좋겠습니다
##재미있게
멋지게
그림체
##ㅋㅋㅋㅋㅋㅋㅋㅋㅋㅋㅋㅋㅋㅋㅋㅋㅋㅋㅋㅋㅋㅋㅋㅋㅋㅋㅋㅋㅋㅋㅋㅋ
거지같은
미소가
공유
구성도
끝도
난무
던져
데스
리암
맞추
방해
보이지
삭제
신은
쓸쓸
아만다
없었
에라이
엘리
왔다
잼있는
절정
정당
주온
죽이
차이
총체
테이
평화
피아노
했더니
##다음
##아무
##le
##자면
##치도
##치를
##시기
##거같은데
##예진
##분한
##때가
##나간
##볼만
##볼수
##편을
##신분들
##개를
##살인
##바라
##8년
##범죄
##따뜻
##끝나
##쥬얼
##하고는
재미있을
재미없을
장면들이
##다니는
가족영화
무섭게
강추합니다
부분은
있었으면
##라이즈
##라이언
알았네
한심하다
메세지
12세
섬세한
데이빗
키아누
ㅈㄴ
국어
그가
니가
대학
똑같이
로망
마시길
맡은
메이
별점이
불과
살리지
생겼
수록
요리
운명
워낙
잘보고
재방
지옥
질리
콜린
평을
##경이
##도에
##기법
##가의
##였나
##정한
##의식
##겠어
##겠다고
##거리가
##분의
##신도
##물의
##없게
##없어요
##애들은
##억지
##꺼면
##석규
##곳에
##채널
영화적
아니잖아
기대하지
##정도가
##을까요
음악은
전개는
캐릭터들
개봉한
시리즈의
##ㅜㅜㅜ
엔딩크
빠져서
상황을
ㅋㅋㅋㅋㅋㅋㅋㅋㅋㅋㅋㅋㅋㅋㅋㅋㅋ
##그런지
잘만들었다
어설프다
슈퍼맨
##기억이
오로지
하정우
1회
17
to
공룡
굳굳
긴박
낫겠다
났다
대결
말인가
버린
본격
브라
성인이
손가락
신인
싸우
올드
원숭
이종
인류
일주일
잃은
전화
좋지
직업
페이크
허나
##라지만
##진창
##간히
##ed
##어린
##어색
##심에
##울뿐
##듯하다
##느냐
##전의
##햇는데
##트로
##집어
##뻔했다
연기하는
드라마다
보는것
다시금
마지막은
이야기의
재밌게봤어요
이영화의
##정도의
아까워서
아무나
이상해
이상은
모든것이
필요가
##00원
살아있는
보게되
행복하게
스타워즈
이미지
독특하고
1등
bad
movie
같았다
건질
게스트
끝을
능가
다이하
동영상
드네요
마다
마찬
마법
머릿
먹칠
못본
못만들
밝혀
베이
부활
불법
빠지는
싶습니다
에드
역겹다
차승
타란티노
토니
##인에
##로그
##스톤
##할수가
##있냐
##비해
##ig
##때부터
##놈이
##ck
##놨네
영화일
드라마도
드라마로
드라마에
드라마중
보는거
이거보단
##하나하나
대박이다
가족애
긴장감을
미국식
감동적이에요
관객이
귀여워요
있었고
오래전에
돌아보게
캐스팅이
##것같네요
삼류영화
아버지의
누군지
잘생겼
스파이더맨
바탕으로
is
간지
것인가
극중
담고
되돌아
마냥
멋있고
명대사
모니
뭐여
민주
새삼
섬뜩
성형
쉬운
안좋
억울
열라
오는
왕조
우린
태국
한동안
한석규
##태현
##소름
##수선
##것같은데
##리스트
##어스
##어어
##안돼
##력에
##후에
##바닥
##님은
##웃겨
##못하고
##갔는데
##선택
##잡는
##졌습니다
##존나
영화지
지루하기
사랑스럽고
아이들에게
여자를
주인공들이
##연기를
공포가
보여줄
##하기에
영상은
캐릭터를
지루함을
역사상
충격적이
CG가
성룡의
의도는
환상적인
시도는
말이필요없다
깔끔한
파워레인
아바타
관심이
길을
낮네요
당장
되는데
드니
레옹
마녀
말은
모아
뭐랄까
뭐하자는
별한
보려
시험
아카
안나온다
여기에
올레
위트
자아
조낸
지극
첨이다
틀림
하다니
했습니다
했으나
##인걸
##으러
##으셨
##주행
##구라
##가운
##희의
##상태
##불쌍
##꺼야
##씨도
##롭게
##쩐다
영화란
재밌었
최고라고
생각만
재미있었는데
##하지말
1점이
##부터는
만든거
공포는
유치해
유치찬
실망이
제목에
##점이상
##한테는
##치고는
여러모로
영화라지만
##재밋게
엉망진창
메시지
미스캐스팅
조잡한
박진감
우려먹
중2병
그이상
내일
두시간
때는
마블
맞나
멋져요
무의미
미션
민족
박보영
보구
상대
성의
숨막
스필버그
시켜
어딘
연상
오직
오리지
울었어요
의상
이라고
있으나
좋으나
쩔어
킬러
##아직
##아름
##기위해
##였어
##한편
##관을
##관객
##리는데
##시나
##미스
##미를
##말을
##비에
##렸던
##나이트
##종영
##더군
##광구
##광고
##집에
##덕에
감동입니다
만들수
사랑스럽다
시간도
1점을
아이디
이영화에
가장한
인간들
##나오네
제목은
개인적인
제대로된
남는게
좀비영화
소름끼치는
이루어
니콜라스
가짜
것만
것들이
괜찬
납득
내시간
매주
박찬
본질
비쥬얼
심하다
싶다면
온갖
웃을
작화
전도
지키
한효
혼란
##높은
##주지
##스텔
##100
##럽지
##리면서
##미화
##미의
##장에
##매이션
##드네요
##타쿠
##없었다
##역을
##조금
##승우
##연의
##회가
##표정
##위가
##끝나고
##영화였다
배우들을
아이유
극장에
가족을
모습에
잼있네요
정신이
1편에
초반엔
역사에
설정은
보지마셈
충분한
이것은
##좋은데
풀어낸
기발한
빨갱이
왕조현
걸까
그는
글을
낭만
대부
듣기
등록
마니
보아도
블루
소유
실사
안다
안보면
않습니다
어차
연관
우는
웃었다
이쁨
잡아
재앙
정사
짜리
하지마
한줄
해야지
했을까
황금
후하게
흉내
##이었던
##가면서
##마리
##화이팅
##am
##래요
##었냐
##치면
##고도
##상한
##보러
##브리
##없는데
##천원
##제를
##질질
##조아
##원에
##줍니다
##힘들
연기자들
내용전개
이거보다
##으면좋
기대한
액션만
10점은
남자는
##너무너무
캐릭터는
표현이
##던데요
시리즈를
아쉬워요
1편의
의미도
모르겠네
그리워
자연스럽게
##하자면
낮은지
만드네
미안하다
죽음을
그럴듯
웃겨서
##프로그램
15세
그려낸
거기서
안맞는
난해한
오그라드는
돈아까워
##학년때
정신병자
김수현
아기자기
점수준것들
감성을
과도
극혐
나고
남성
누나
늙은
니네
뒤늦게
들게
때가
떡밥
마리
멋짐
보석
빠순
상태
설경
속이
스토
스펙
안보는
안무섭
오지
오해
이탈
진수
찍는
커버
한다고
##맞는
##가며
##tt
##만듬
##귀엽
##스레
##동근
##사도
##치지
##어를
##보지마
##랑은
##번에
##ㅠㅜ
##우리
##달라
##제발
##모양
##았나
##빼곤
##웠는데
##크로
##티가
##새록
생각은
재미없네요
쓰레기를
10점준다
아이를
여자들이
주인공들의
이상하다
##하나요
##재밌어
아니라면
어디에
##이라는게
무서움
웃음을
분위기는
문제는
몰입도도
##느낌이
참고로
안나옴
ost도
어설프게
##최악의
이하도
세련된
뛰어넘는
브래드
엔딩크레딧
마찬가지
어차피
4편
가만
감이
그로
넘어서
만났
말해
머야
멋져
바라는
봤나
소소
수는
숨은
신이
앞서
옆에
원하는
일을
졸잼
준비
줄이야
짱이다
찬양
캐릭
한거
##인영화
##주는데
##마르
##dd
##bc
##방식
##워드
##동이
##자인
##발이
##살때
##빠져
##트릭
##6년
##맘에
너무하네
연기만
이런식으로
스토리로
보고나니
시간아깝
별로네요
전개에
##스러웠다
억지스럽고
표현할
긴장감은
떨어뜨
알바가
보고싶은데
인상적
시대가
이딴게
##oooo
2편도
##시키지
킬링타임용으로도
사회적
2014년
##들만의
진실을
상처를
고등학생
아놀드
지극히
1개
com
개꿀잼
거듭
고스
군더더
그외
날아
너희
놀래
니들이
도와
돼지
런닝타임
레오
말아
명성에
모방
못하겠다
문득
미학
미쳐
반지의
벗어나
본것
생명
시골
안봐서
엉뚱
월드
있긴
있겠지만
재탕
적나라
조지
첨으로
패션
하세요
하기엔
호흡
##면을
##가위
##사실
##하시길
##시의
##오고
##찾아
##배는
##내지
##승헌
##실히
##코드
##크루즈
영화감독
최고에요
스토리나
보고난
보고있는데
괜찮았
그런거
##연기에
##주고싶
추억을
티비로
이것보다
##시키고
##모르게
알려주는
필요한가
두고두고
임팩트
테이큰
박찬욱
80
MB
거장
고증
고양
꼭봐야
나열
높지
들어서
박시
반응
비정
사과
상어
새록
소지
시체
실수
쏘우
어수선
없던
여신
역겹
의해
입장
있냐
재수
지독
쩌는
참여
코스
클로
했어요
했는지
##이영화
##좋네요
##구의
##여주
##스턴
##치다
##있었는데
##작을
##공주
##나가는
##판을
##물에
##달라고
##내서
##점으로
##저것
##바람
##본색
##더라고요
##져야
##추는
##추억
##베이
##극을
##엇어요
##영화제
##하는것도
감동이다
그냥저
10년전
사람과
기대했던
##연기력
##하기가
음악을
##재밌고
어디가
느껴지
나왔던
##할수있는
완벽하게
여주인공의
영상미와
어울리지
슬픈영화
2014
후반부로
후반부에
메세지를
러브스토리
미스테
다니엘
각각
감성이
강요
공연
공허
국산
극본
눈으로
되면
모양
못해서
미야
미술
박평
불가
삶은
소품
소개
심사
안녕
않아요
애들도
엄정화
욕이
우왕
입장에서
저지
적은
전라도
좋더라
찾을
책으로
커서
포몬
해요
해외
##인지는
##으려
##아의
##였지
##하늘
##시네
##고한
##렸음
##분을
##보려고
##플린
##운데
##저나
##입니까
##원을
##엄청
##계를
##알아
##셨으면
##절대
##TV
재밌었습니다
##다는건
쓰레기는
시간은
액션의
하나는
하나가
이해도
괜찮았던
현실적으로
억지스런
##장면도
대사와
노래는
나와야
보게되는
완벽하다
지루함의
문제를
##것같음
19금
장르를
인물들의
여배우가
더욱더
크리스찬
그럴싸
##마저도
심리묘
이정재
클레멘타인
##스포머
8점은
가시
구조
김명
깜놀
나면
농담
눈요
대학생
돈아깝
된장
로멘
머냐
모른
보이고
봤고
부러
분장
상큼
서정
센스
송승헌
아메
얘기를
언론
없어도
오인
와서
외면
욕을
웃는
웬만하면
유승
음모
인가
있었음
작가는
졸리
주고싶
죽어
증명
지경
지가
차태현
치료
##아리
##마나
##스카
##영은
##사고
##하길래
##리로
##드먼
##나라는
##감한
##개의
##남을
##즈가
##포인트
##란히
##돌려
##낫다
영화같다
정말정말
##하고도
연기의
이런것도
쓰레기네
처음이네
처음본다
나오네요
아이고
유치원
##하기는
##였다면
인생에서
시리즈가
알바생
영상미도
시즌3
##지루함
평론가들
소리만
로맨틱코미디
싫어하는
##ㅇㅇㅇㅇ
##줄알았다
흥미롭게
아련한
심각하게
재난영화
오랫동안
아직까지도
밋밋한
기가막
이끌어
엑스맨
시간때우기
임창정
##라에몽
호불호가
원주율
40분
같지만
과정이
그나
기적
기법
남기는
넘쳐
되서
딸이
러셀
런닝
막상
멘탈
발음
방향
보겠다
뻔하다
색채
손꼽
신화
싶었는데
쓰러
열광
웃겼다
저러
전지현
좋앗
초월
편의
편하게
피식
하긴
한정
해준다
했나
##지라도
##경을
##경찰
##맞고
##여도
##스틴
##에다가
##해가는
##있을까
##어떻게
##렸네
##개념
##되요
##일에
##포스터
##창시절
##팬이
##통수
##졌으면
##형이
##년만에
##돌이
##께서
최고인듯
스토리전개
사랑한다
기억난다
공포도
##사람의
애니매이션
만들어주
가족과
긴장감과
느껴질
##만큼이나
의미있는
살아야
영화였는데
시대적
힘들었다
들어간
사회의
가치도
완성도가
##줄알았는데
감동적입니다
빠져들게
베드신
한숨만
아버지가
김희선
국어책
다이하드
그냥저냥
것들
고질
구혜
남친
다름
만날
몰아
못하네
본능
브로
비참
소리가
수십
신세
안좋은
역작
연인
열자
오유
이태
이순
있었습니다
재방송
잼나
잼없다
적극
절반
주세요
주고싶다
중의
줘도
쿵푸
크레딧
파고
##데미
##아이가
##성한
##가면
##가야
##로맨
##대기
##치만
##말도
##덩어리
##im
##놈의
##일본
##케이
##원에서
##전은
##알고
##극의
##극장에서
##랬다
##펙트
영화들이
감독에게
사랑도
보는동안
좋아하시는
작품에
지금보면
느낌도
##라는걸
장면만
인간적으로
하고싶은
대사는
##생각으로
느껴지지
결국엔
개인적으로는
당시엔
역사적
진부하다
캐스팅도
캐스팅은
충분하다
감동도없고
하지원
나올까
이것저것
귀신이
영화인것
마무리가
취향이
겨울왕국
가슴아픈
고맙습니다
비행기
언젠가
트랜스포머
잊지못할
7점이
감수
건강
고소
고작
김선
김윤
끝남
나을
내취향
들이
마누
멀쩡
면이
비해서
생존
서스
쉽지
신세계
안가는
애가
야하지도
에바
연습
왕가위
욕심
웃다가
이어지는
인권
장소
장혁
정주행
조아
조기
찬사를
채워
처절
통해서
편인데
한예
할때
##이래
##주네
##진행
##하의
##하루
##하지는
##리즘
##리쉬
##했다가
##il
##상과
##보던
##감정
##번을
##안에서
##점에
##제대로
##넘치는
##약한
##목소리
##줘야지
영화볼
연기로
재미없었음
있는가
처음이
최악임
이렇게까지
1점준다
모르겟
아깝습니다
우리에게
유치뽕
현실에
몰입하게
##드라마는
애니를
재밋네요
1편을
세상의
##할수도
감동적이었다
OOOO
만들었냐
불쌍해서
##것같아
걸작이다
높은지
감독님의
##리의리의
아빠가
영웅본색
전편보다
메세지가
동화같은
나머진
느낀다
이기적인
이따위로
##이후로
전율이
다세포소녀
10점만점에
##지부지
아이언맨
총체적
A급
가을
가난
간단
갖게
갖춘
귀찮
기승전
도움이
돈으로
듣는
뚝뚝
람보
마틴
맞다
모독
모순
목적
방황
배려
배드
버무
번역
보지도
빠질
빨간
상당한
손예진
십점
싶음
안감
안겨
안봄
안나오는
약하다
여유
오페
유익
이중
이전
자리
제왕
지하
커녕
피곤
하니
학창시절
##면이
##진실
##아들
##구를
##소리는
##않고
##디가
##것들이
##것인가
##것처럼
##시킬
##미도
##보소
##봤지
##안된다
##물은
##없지만
##세상
##군이
##버튼
##트라
##ct
##혀서
##믿고
##멜로
##뭐냐
영화같은
만들다
시간과
기대된다
##하지말고
만든건지
일본이
일본에서
볼만한데
매력적
인생영화
많은것을
##지않아
재밋고
부족하고
의미없는
멋진영화
초반에는
웃음만
허접하고
슬프네요
이딴거
##부분은
주연의
잔인하고
상황이
오글거리고
바라보는
##애니메이션
그럼에도
할말을
가까이
러닝타임이
과장된
빈약한
다크나이트
드래곤볼
무간도
아마추어
유치찬란
가야
감옥
개잼
거야
것과
관심을
괴롭
구경
그에
그를
나아
낚인
놈들
니들
더더
돈만
동감
됐다
되나
따듯
로마
많네
말았다
명배우
미니
바란다
박정
반갑
받아야
백인
봤는지
솔까
알수있
욕만
용기
위안
윌리스
의사
이자
이외
임청
정석
주관
주먹
지저
차별
첫번째
추가
커피
텐데
픽션
하드
한글
허탈
화질
흉내내
##이었
##이걸
##et
##한텐
##러티브
##할순
##죽이고
##거워
##격이
##부에
##제일
##저기
##케팅
##코믹
##잘못
##cn
##듣고
##절로
##손가락
영화랑
재미만
연기한
평점도
보고도
지루했음
드라마라고
사람에게
만들기
기대안
명작임
명작이라고
이야기도
이야기에
공포영화가
현실적이고
##지않게
##는거냐
나와도
답답해
엔딩은
미친듯이
하지말
197
비교하면
오글거리
##하하하
자연스러운
어쩌다
tv에서
식상하다
카메론
##하겠습니다
##공포영화
30대
##지말자
화끈한
심오한
영화자체는
정우성
영향을
오우삼
이탈리아
8점이
90
ㅜㅠ
가깝
거다
경악
교회
그들을
끝은
나비
날려
남고
남긴
넘치
더러워
도라에몽
돈과
돈벌
물어
믿기
믿기지
배울
범인이
생기
심장이
어중간
있어도
재치
저게
적이
죽인
지지
참을
팍팍
한가지
혁명
흐지부지
흠잡을
흥분
##는것도
##지원
##인해
##진호
##아냐
##요한
##스에서
##에대해
##자도
##치기
##시네요
##겠고
##비아
##들어서
##예쁘
##id
##보인다
##놈은
##봣다
##없습니다
##못함
##실패
##쾌한
##잘생
##십니다
##줘도
##답다
##왔습니다
##센스
##뭐야
##깊은
생각했던
##었다면
최악이
10점짜리
연출을
일본인
원작과
##지않음
연기력과
자체도
어설퍼
우리나라의
안되네
만화를
만화영화
시나리오도
지나친
B급영화
##재밋다
여배우의
전부다
##좋은영화
##아닌데
2012
##시대의
의도를
관람객
설명이
우울한
미래를
굿굿굿
존경합니다
편견을
영화제목
장동건
어떠한
60년대
개망
걸로
공주
관대
꺼져
끝판
넘는
단역
데미
덴젤
되야
되어야
드물
따스
때도
못했던
무대
받았다
버렸다
색깔
샤론
신데
없애
엠마
엽문
욕나온다
윌리엄
의지
의한
이를
일찍
일어나
잘하네요
잼나요
종합
질문
찾기
초중반
최대
컬트
코드
터지는
토할
파라노
평론
해주세요
##다리
##이뻐
##이들의
##니의
##기보단
##구역
##같네
##을지
##ff
##el
##희는
##스코
##자키
##하리
##하더니
##것보다
##현준
##들린
##드립
##히히
##판으로
##안되고
##그렇게
##앞에
##녀의
##뜨고
##왔던
##혜교
재미나게
사람마다
지금이나
1점주는
재밌게봤는데
기억을
볼만해요
##사람을
현실감
다른건
소재만
보기싫
애니가
원작은
아름다웠다
여운도
스릴러물
나왔음
##아까워
만들었으면
불쌍해
상상력이
##쓰레기쓰레기
CG는
오글거림
웃긴다
알려준
예고편만
감동적임
##하셨습니다
떠오르는
타이틀
1점준것
예뻐서
힘내세요
클래식
수면제
새록새록
소지섭
강하게
개발
결과는
기록
끝난다
낚여서
납치
내고
노골
놓은
눈치
되어서
되었습니다
또보고싶
마구
말밖에
말하려는
망설
멀리
무색
미장
미이라
배가
봤다는
부드
빠지게
상실
성적
성찰
앉아
없었는데
여튼
우롱
이영
이혼
일관
잡고
재현
점은
점에서
죽일
줄리아
지상
친일
하셨
회상
##니가
##지환
##가게
##마무
##같네요
##방에서
##에로
##15
##래셔
##자꾸
##나보다
##오늘
##보며
##신기
##짓을
##급영화
##달아
##써요
##조연
##얼마나
##언제
##줘요
##허무
##뒤에
##효진
배우와
다시봤는데
아이와
아이들은
여자애
공포영화는
##하나도
##드라마를
매력적이다
한번씩
캐릭터의
코미디는
어디까지
보고싶네요
##고싶어
분위기를
힘들게
당시에는
예술영화
##보기엔
상영관
크리스토
안타깝네요
진행되는
훈훈하고
안타까움
분명히
인상깊게
안나오고
##새끼들
부끄러운
다큐멘터
##9999
믿을게
특이한
여태까지
사투리
이따구로
손색이
탁월한
엑소시
한효주
군더더기
미야자키
300
70
7광구
강호
개같은
그와
그들
꿈과
나참
달리는
더럽
돈은
때의
또라이
많음
면에서
명연기
모성애
반감
본인
봤지
불필요
살렸다
수사
시사
싶으면
쓰나
않으면
않아도
앞에서
얻어
없으니
예산
왔는데
우승
유사
인지
일생
정준
죽기전에
지는
지워
짱임
출발
캐리
티가
포함
학살
한대
흑흑
##이와
##지르
##데요
##주제
##구는
##구먼
##가니
##동화
##동을
##자에
##리지만
##거에
##거죠
##봤네
##판타지
##명화
##괴담
##일은
##프리
##님을
##병맛
##행복
##더러
##위를
##22
##릴때
##랄한
##숙한
##잔인
##하고싶은
지루하지않
재미있다고
사람만
좋아하고
좋아하네요
작품의
기대에
없는듯
##사람도
20년전
##재미없어
##너무잘
##스러울
##주고싶다
대사를
노래를
##할수없는
어이없고
관객에게
초반부터
지루함이
귀여워서
주연배우
##ㄷㄷㄷㄷ
##10자
킬링타임용도
한계를
3편은
일어날
통쾌한
##마지막에
아픔을
복잡한
슬펐다
##00000000
김민종
강력추천
##★★★★
스페인
소피마르
권상우
오인혜
구혜선
미장센
28
The
it
♥♥
고인의
골때
그시절
김정
나빠
대역
도중에
돈낭비
들지
또는
또봐도
록키
만세
만나는
머리를
멈추
몰락
못따라
반도
받았
법정
베트
보아
보낸다
비하
비중
빠르
사망
살리
숨어
승부
심한
안남
안봐
애정
애절
어마
에일
였다
우아
웃으며
원표
유령
유혹
장근
재발견
정통
증거
증말
짜맞
추구
크다
팀버튼
하지마라
향한
홍금
##니버스
##기나
##기술
##간이
##였네
##스도
##해줄
##하구나
##시를
##시나리오
##려진
##말까
##비추
##들보다
##감에
##봤을
##심한
##차이
##될듯
##함으로
##더스
##졌네
##평을
##솔직
##덜덜
##CG
##댓글
영화찍
영화내내
영화내용
##하고싶다
최고인
생각나게
재미있어서
##다는것
좋아했던
일본영화는
남자를
반전의
필요없음
##는거다
##스트라
잔잔하면서도
떨어진
따뜻해
무섭지
만화가
배경도
다큐를
##스토리도
여기저기
나올때
발연기에
##재밋음
평가를
ㅋㅋㅋㅋㅋㅋㅋㅋㅋㅋ
이번에
##모르겠다
##을수도
가치를
돋보인다
흥미진진한
불륜을
메세지도
외국인
메시지가
##최고의영화
미치도록
채널돌
조용히
##ove
##000원
말았어야
짐캐리
흡입력
뮤직비디오
고스란히
MBC
그나저나
0점을
1년
1탄
2가
24
가라
괴수
그들은
길고
끊임
냉정
높네
더럽고
데작
돈아깝다
두말
드문
들여
들어도
똑똑
만으로도
박해
보느니
복수를
본듯한
부각
불행
송혜교
싶지만
않네
애로
어고
어떻
없구나
역쉬
연주
온몸
의견
인데
잃어버린
잼없음
저주
저희
저절로
전국
주목
줄거리가
쪽팔
태권
파이
풀어나
##라곤
##지효
##구리
##가다
##가장
##끄는
##었을텐데
##자들은
##할줄
##하죠
##하구만
##시도
##시스
##습니당
##들이다
##렸습니다
##파서
##타는
##긴장
##까봐
##속을
##바리
##군의
##크가
##놀이
##34
##떨어지는
##특집
##참고
##냄새
스토리지만
쓰레기가
##같은거
아이러
주인공을
이상함
이상으로
20년이
##스럽네요
필요하다
실망스럽다
추천한다
##이란게
보고싶어
부분에서
졸작이다
설정과
주제는
영화중에서
영상미는
이쁘게
##거같아
에로물
만드냐
복수극
메시지를
남아있는
의외의
오락영화
그지같은
고마운
지겨워
유지태
강동원
파라노말
5점대
in
ㄹㅇ
가식
간첩
거냐
것들을
경의를
그대
극찬
김구라
넘어가
노무
노튼
뉴욕
대실망
똑바로
만듬
명확
몸을
못주
번을
변호
보일
부르는
불면
사로
스업
식스
알아야
양조
어의
영광
예쁨
완성
울었습니다
이겨
일일
임수
자위
잘해
전성기
정재
중년
중후반
쥬라기
직장
차마
총을
총격
총알
침묵
카피
클라이
클라라
태어나
표정이
하자
한장면
할수있
함부로
허구
##라나
##이들이
##인드
##으세요
##로가
##한마디
##여야
##사님
##하겠지만
##하더라도
##리트
##려야
##거에요
##상도
##상욱
##드폰
##두사
##던거
##던영화
##향이
##체를
##특히
##궁금
##줘라
##힘든
##맹랑
##훌륭
영화계
너무낮
너무재밌
평점올
보고있는
아니네
아니냐
아니네요
사람들도
사랑으로
다시보게
나오다니
이영화보고
보여줌
현실성이
솔직한
수준이하
재밋는데
남는건
시나리오를
않았음
네이버평점
장르의
인물들
##재밋어요
여배우들
머리에
즐거움
##조차도
안나왔
전편의
아프리카
싸이코패스
모자라
흐름이
퀄리티가
##가능한
시간아까워
비현실적인
깜짝놀
아동용
응원합니다
21세기
어우러진
겉멋만
과대평가
매미OO
인종차별
에드워드
아카데미
런닝맨
1개도
2차
3d
3시간
60
KBS
ㅂㅅ
가해
강아지
강지환
과정을
구지
권력
김영
까는
낚이지
내세
내놓
더러
뛰쳐
맘이
머지
머가
멋잇
모호
물건
미치는
배워
별다른
보소
분이
뻔뻔
상투
슈렉
신념
씨발
아아
양동근
어벤
없었으면
에러
이경
잼씀
저기
조조
종영
주옥
죽을때
지배
징징
찍을
차분
차이가
퇴보
할배
환장
흑역사
##도와
##요미
##op
##재현
##만하고
##한가
##한건지
##사에서
##할것
##수로
##리칸
##치않
##있다면
##거의
##장은
##어주는
##임이
##드려요
##왜곡
##판은
##올라
##명한
##명은
##넘게
##조한
##원도
##원작
##씩이나
##국이
##받아
##버전
##많고
##증을
##쳐도
##양의
재밌지
##하는듯
지루하기만
기대됩니다
별로였음
아깝다는
명작이네요
장면의
무슨말이
##하기까지
매력은
##재미있다
만들어야
캐릭터와
공감가는
잔잔하지만
막장이
##아니면
세상은
어린아이
살아남
무서워서
안되서
관객들
답답해서
상상을
뛰어나
다음으로
굉장한
혼자서
극장판은
성우가
해도해도
감성팔이
잘생긴
시원한
태어난
나은듯
최초의
정확히
##거든요
공중파
절제된
에일리언
99
very
ㅠㅠㅠㅠㅠ
간간히
경제
고딩
곱씹
구라
구분
구역
그땐
그들만의
글구
김남
나니
날라
내겐
닥터
된다는
될수
될듯
만나고
매혹
멘붕
명성을
모티브
미리
별1
본건
본적이
부럽다
심히
심리를
싸울
아끼
알렉
어케
어떡
없군
엉터리
울게
울었던
있나요
잘안
저거
정이
졸려
지진
짐승
토끼
한테
활용
##라지
##좋아서
##였을
##해석
##리다가
##거라고
##비는
##어쩌
##서방
##렸는데
##볼수록
##보시길
##판에
##그자체
##달까
##건강
##국의
##빼고는
##버리지
##권택
##돈으로
##ce
##cg
##떨어진
##삭제
##덕분에
##ㄱㄱ
##홀로
##롭다
영화자체가
너무재밌어요
재밌기만
##에서나
최고였습니다
평점낮
지루하네
배우분들
작품이라
기대는
기대도
액션에
별로인
괜찮아
장면과
아무래도
결말까지
뭔가요
코미디가
개봉을
제목과
아니라서
##수가없다
떨어져
막장으로
아쉬울
아쉬웠지만
중간부터
보고싶어요
무서울
행복을
웃음과
허접하다
분위기에
옛날영화
엄마의
주제도
않았을까
##버린다
##것같습니다
##노잼노잼
상황에
등장하는
허무맹랑
##지루하고
예고편이
안타깝고
선택한
몰랐는데
과거의
별루다
게임을
자유를
짱짱맨
실패작
사기꾼
불쾌한
의문이
가져다
낚였네
파워레인저
별한개도
##ttp
더더욱
35
갔는데
개소리
거대한
검은
괴로
김성
내리
느리고
대가
도입
도통
똥을
레드
로보
마케팅
맛깔
물씬
믿음
밀라
바랬
발레
벌어
보셈
볼것
부디
색감
성경
속은
송지효
순진
쓰지
안웃
엉덩
에릭
용두사
우스
이선
일탈
있으니
잘함
장나라
전락
접근
정화
존잼
지존
징그
짱이
천만
출현
충무
톰크루즈
특징
파이팅
하냐
하던가
한두
##이딴
##도없는
##생이
##가자
##였네요
##을정도로
##est
##귀신
##스라
##할정도로
##하잖아
##려니
##서린
##서트
##보지마라
##편의
##놈들이
##봣어요
##살에
##뿐만
##결혼
##실력
##함만
##통에
##앞에서
##꺼다
##♡♥
##언이
##녀가
##율이
##등장
##앗는데
##챙겨
##곳이
##엿다
영화본
영화계의
너무한다
재밌었고
##에서만
##하는건지
내용으로
재미있네
재미있었던
만들려고
이거는
마지막으로
작품중
재밌게봤
주인공도
아까워요
마음속에
볼만했음
##하나로
남자라면
매력있는
스릴이
인간들이
인간적인
스릴러를
정신나간
나왔는데
이유로
무엇이
장난아니
사실이
초반부
이해가안
오늘도
분위기도
만들었네
##주의를
집중도
교훈이
허무하게
이번엔
상영관이
예쁘게
누구도
미안하지만
오글거려서
비추천
즐겁고
철학적인
##로서는
##모습이
글쎄요
넘어선
스티브
받아들이
영화라는게
대표적인
슬퍼요
##bs에서
한번쯤은
감흥이
어째서
best
##남기는데
정당화
차승원
임청하
홍금보
5개
ocn
같네
걸린
그딴
극한
기념
길다
나가는
나홀로
난생
남발
내는
단언
독창
동심
되도
레즈
마을
마스터
많지만
말이다
맞게
미흡
본인이
뻔하지만
뿐만
슬래셔
신민
예매
오타쿠
웃길
원피스
의학
읽는
임권택
잘살
조정
조심
존내
죽는다
집단
총질
퀴어
풍부
하던데
한개
황홀
##이형
##데로
##성으로
##가라
##였구나
##였으나
##희씨
##해본
##하였다
##겠냐
##거는
##예술
##두근
##볼수있
##보임
##발이고
##겨운
##일으
##프라이즈
##았어
##전달
##받아서
##크의
##론의
##잇고
##책임
##뭔가
##삼류
##영화네요
진짜진짜
생각에
생각해서
##이라곤
만들기도
쓰레기임
좋아해요
기대되는
지금껏
처음이네요
나오는거
모르나
우리나라는
아까웠던
원작소설
실망스러운
조금씩
친구들
시청자를
안되나
관객의
만화는
슬프지만
배경과
##부분도
영화라면
##하시네요
이정도로
화려하고
##말고는
다운로드
이후에
##거같네요
2점준다
존재하는
##하하하하
몇번이나
몇번이고
##재미있음
어쩌라고
그때의
##그런가
편집이
아닌가요
미안해
범죄자
오글거려
전작에
스케일이
가끔씩
러브라인
남주가
시선으로
아침에
인터뷰
초등학교때
말아먹은
김혜수
별반개도
끼워맞
몽환적인
비정상
서스펜
조기종영
끝판왕
크리스토퍼
베트남
##솔직히
http
me
것인지
경계
계획
구멍
김소
나뿐
너는
느슨
다리
대략
드라
뜨거운
마초
메가
몇개
모야
못살
물고
미개
바꾼
백배
보진
보니다
부조
생략
샤를
서서
섭외
소리지
속의
수정
심은
쓰렉
안했는데
알겠지만
약한
어을까
없다는게
엉엉
왜만들
웃게
웬만한
유오
유부
이재
이범
이념
일요일
있으
있겠지
잘하네
잠수
주상욱
죽기
지우
지나서
최대의
큐브
틈이
파트
퍼즐
할지
했을
후덜덜
휴먼
##다코
##는디
##지기
##데터
##맞은
##아버
##구구
##가는데
##tv
##정보
##여자가
##었죠
##영씨
##시지
##시죠
##거니
##당하고
##비홍
##들리
##어마
##ion
##드네
##편인데
##감상
##남아
##안의
##겟네
##되네
##저링
##노출
##중한
##먼저
##날에
##됐는데
##호러
##평점은
##평점을
##특유의
##ㅗㅗ
##싱턴
영화만들
재밌지도
연기까지
평점왜이
감동적으로
아니라는
재미있었고
좋아하지
한국에
나오기
##적이지만
이해못
우리들의
장면들
그런영화
아닌것
볼만하네요
현실의
결말에
눈물흘
##재미가
만들어준
뭔가가
코미디도
나온다고
기분만
아쉽고
개인적으론
어이없어서
전쟁을
코믹영화
후회함
애니메이션이
더빙은
##좋아하는데
주제에
##만든다
엉성하다
CG도
인물의
성룡이
알게된
사회에
##수준의
구성은
화면이
프랑스영화
그래픽이
스타일리쉬
나에게는
OST가
어린이용
미소를
모자란
아침드라마
어렸을적
심각한
때문이다
슬퍼서
미스터리
최민수
중학교때
꿈꾸는
사무라이
일베충
황정민
졸업작품
과도한
신세경
1빠
so
가관
간직
같지
게리
계기가
고급
김강
꿈이
남기고
노동
눈만
더럽다
되었는데
드리
딱딱
말만
맙시다
모여
몬스터
못보고
못하겠
무관
미키
믿어
받아서
버리
보실
보이지만
복선
봤었다
빠짐
스무
신나게
악플
언급
없었고
여고
여왕
우습
이라
임신
잡는
장르는
잼없
정리
조승우
주원
쥐어
지적
초능력
최하
최후
치는
컨저링
코드가
타락
토요
푸른
하던
현빈
흐르
흔해
##는지도
##니스
##인으로
##데기
##도다
##요즘
##마트
##1위
##19
##1점도
##었을때
##디션
##자식
##사극
##대전
##하단
##un
##있다는
##글자
##작은
##공부
##ill
##상실
##히어로
##나타
##오르는
##볼려고
##보셈
##봤으면
##플렉
##부림
##부턴
##내려
##천재
##일세
##모가
##본게
##교육
##호의
##누구
##외로
##2점
##빨고
##충격
##왔어요
##깊게
영화들은
##영화네
재밌당
최고였어요
생각한
배우만
좋아하게
이건아니
마지막의
액션신
액션물
한국어
10점도
10점줌
10점이다
##에게도
이해하지
괜찮네
마음의
20세기
만들어졌
모든것을
수준은
##0년도
이걸보고
##장면에서
기분좋게
##주인공이
만드는지
부족함
정신차
시작은
훌륭하고
의미는
우리나라에서
언제쯤
역사왜곡
##부분에서
오래전
엄마랑
충격이
충격을
궁금해
중국영화
실화라니
19세
##1010
인물이
##수준이
각본이
ㅋㅋㅋㅋㅋㅋㅋㅋㅋㅋㅋ
구성과
케이트
이런영화에
시절의
참신하고
과거를
먹먹하다
ost가
이연희
일어나는
3D로
시간아까움
검색해
어지간
당연한
인디아나
감정이입이
지났지만
단체로
설경구
신데라
1화
1분
5점이
re
가상
건데
경우
고찰
군인
그것은
금방
김대
김현
깊이가
나누
남았다
내러티브
넘은
노는
노력이
논리
느린
달고
둘의
라스
로렌
말에
말해서
말해주는
말하려
매회
몸에
버전
버릴
버금
보신
볼줄
비틀
산만한
서인
섞어
성유리
식으로
아가
알지
여주의
예의
옹박
웃어야
은퇴
이완
이작품
인한
잘하
잘표현
장미
장편
죽인다
지들끼리
창의
창작
천사
초기
촌스럽
추락
클린
한건지
혹성
황비홍
히로
##이기에
##이거나
##지우
##지는데
##진은
##기준
##간만에
##을것
##소를
##좀비
##스피
##수한
##수밖에
##리타
##비를
##어난
##보길
##보지마세요
##봤다가
##봤더니
##터짐
##올때
##일라
##제는
##문의
##긴했지만
##모르는
##결이
##합시다
##추고
##평생
##씨를
##철학
##위해서
##났던
##틈이
영화고
영화에서는
최고라는
평점좀
보고있어요
지루했어요
드라마네요
재미없습니다
이건좀
기대할
없는영화
있는게
있는듯
하는건
연출의
이해하고
기억될
아닌지
소재에
보기드
##지않나
공감을
대단히
대사들이
##스트너
표현해
모습도
모습과
기분좋은
미국이
##이라고는
웃기네
##감독은
모르겠는데
사실적으로
시나리오에
부분을
##스토리가
재밌는영화
않았나
여주인공은
빠져드는
초딩이
세계관
멋있어요
분위기와
해야하나
사라져
나라를
웃겨요
서로를
중반부터
놀라울
돌려줘
##모습을
중간중간에
흥미롭고
깔끔하고
역할을
영화보는내내
에이리언
히어로물
방법이
움직이는
못생긴
##그렇고
담아낸
오로라
가르쳐
이은주
리즈시절
##여운이
나중엔
박평식
각자
과잉
구로
국제
글로
기쁨
김재
꺼내
꼬맹
내눈
뇌가
단점
당하는
데드
돌고
두명
때리고
마주
마르
많네요
몸이
발상
변신
별점을
불후의
비난
비롯
빛이
뻔히
사춘
산드라
상식
속도
속아서
수백
신나는
실종
싫은
싶었
싶게
아들과
악몽
안젤
알리
알수없는
연장
옛다
오토
외에는
요약
운동
위에
이들이
일제
저리
조쉬
졸면서
지브리
찰리
찾고
채플린
첨에
촌스러운
치명
치열
코엔
파악
피라
한없이
환타지
훈남
##라를
##이한
##이긴
##진의
##좋았어요
##가도
##화는
##ve
##hat
##해놓고
##하곤
##치네
##죽을
##미친
##게도
##if
##나지
##보라
##놈들은
##틀러
##슬프
##슬퍼
##날때
##못보
##많다
##메오
##잘하고
##잘만들
##트에
##ch
##폭력
##됬는데
##근한
##흥미
##넣은
##ㄹㄹ
##힌다
##영화냐
##에서야
연기파
지루하지만
10개
좋아합니다
이건진짜
작품성이
하나님
##다고생각
처음임
연출에
우리네
재밌게본
아이도
##되는영화
현실이다
남자들의
보기는
눈물도
영화다운
인간을
음악에
추천해
재밋는
어떻게든
##스트우드
보다보다
특히나
안되네요
##해야할
설정에
않았고
후반에
2000년대
ㅋㅋㅋㅋㅋㅋㅋㅋㅋㅋㅋㅋㅋ
멜로영화
나이에
그녀가
만드네요
지금까지도
스타일의
요소를
2시간이
허술하고
잘생기고
심심해서
리뷰를
분노의
소름돋는
이연걸의
##티비에서
새롭게
치밀한
##영환데
적절히
이게뭐야
자본주의
헛웃음만
영구와
어딘가
오리지널
##아직도
전도연
한예슬
##파서블
아이러니
혹성탈출
sh
거창
겁니다
고백
구리다
그레이
김하늘
나간
남긴다
노예
눈부
능력이
덕에
도덕
됐는데
또보고
르네
말라
말하면
매트릭
못만드
무기
무얼
묻혀
미사
별기대
불친
삼가
속편이
시스
실컷
안에서
오오
요구
우익
울어
이랬
잘나가
재주
전세계
제법
조인
진작
짱구
찍지
처절한
첨이네
청년
체험
트라
팔아먹
팬이라면
하려는
허전
혹평
환불
후진
후한
휴머니
##다를
##이쁨
##기때문에
##가진
##마가
##을뿐
##ain
##움과
##었어도
##영웅
##사나
##할정도
##할려고
##하느라
##것다
##시라
##했더니
##겠는가
##있었던
##공의
##드리고
##히게
##나무
##볼만한
##그럼
##과정
##망이
##저런
##카이
##슬리
##날이
##런지
##피는
##피아
##츠의
##등등
##블루
너무하다
너무좋아
재미없다는
사랑이란
보는듯
시간의
좋아한다면
하나만
하는건지
##적이지도
1점주기도
##이나오
아이들도
괜찮던데
여자들의
주인공과
몰입을
남자들이
보기에도
##스러워서
한번은
수준급
재밋어
##나오면
아쉽네
느껴짐
봐야겠다
미국판
훌륭함
따뜻하게
오늘은
영화관에
##부분에
##한거지
##들에게는
후회할
##하시면
다음에
어른들이
에로틱
사이에서
자극하는
대한민국의
##그래픽
메세지는
아마도
사라진
아프고
OOO기영화
##짜증나
##아아아
##ore
다가오는
적당하다
인터스텔
신경쓰
어처구니가
신파극
끝날때까지
볼거리도
망쳐놓
인내심
예뻐요
M창있네
충실한
선동영화
웃겼음
자세히
##아까운영화
일깨워주는
이성재
두근두근
##위원회
왠만해선
원숭이
미스테리
불필요한
소피마르소
어마어마
장근석
양조위
1도
98
9점은
갑갑
것처럼
고발
공산
관점
극과
나왓
너네
높이
단조
댄스
데려다
되는거
두개
맞춘
믿는
믿지
볼꺼
부른
빼앗
서프라이즈
소방
아시아
알맹
암이
오마
오만
울었네요
원빈
은은
읽은
있다는게
제미
조여
존중
즐기는
지들
지어
짧게
쩌네
철저
추잡
추악한
출신
케이지
크로
하려고
허영
호텔
흥해라
##높다
##높아
##인척
##인권
##으려는
##좋았
##좋겠다
##아프
##아닐
##가네요
##마는
##마냥
##ht
##방의
##워커
##수다
##대도
##하려면
##려라
##고은
##미니
##어머니
##볼까
##타클
##보일
##감사
##유혼
##밖엔
##안나
##그린
##배속으로
##우면
##내기
##되길
##질때
##프트
##역의
##입고
##야오
##림을
##연애
##전개도
##빼면
##용이
##트리
##선수
##씨와
##금을
##월드
##곳에서
##엿음
##묘하게
##듭니다
##곱니다
영화좀
최고라
생각했다
생각해도
아니죠
사랑스런
쓰레기로
보는줄
보는듯한
한국영화가
이게왜
1점짜리
명작이라
재밌게봤음
아이의
아닌거
유치하지만
볼만했는데
이상도
다른거
다른영화
남자와
스릴있고
인간들은
정도다
정도껏
만들어주세요
##보는내내
억지스럽다
억지설정
실망했다
캐릭터에
표현했다
나름의
1편과
영화로서
무서웠다
##최고다
전쟁이
##내용을
코믹한
느낌이랄까
실화라는
그만좀
##기만하고
비교가
알았더니
당신을
3류영화
기다리고
##지루하다
그녀는
진행이
먹먹한
이러니
아오이
느꼈던
중반부
짜증나네
##로서의
심심한
실패한
한계가
소녀의
레이싱
작품성은
씁쓸한
대표작
좋아할만한
찌질한
달달한
기회가
다를게
무료로
위험한
달콤한
냄새가
담담하게
EBS에서
리암니
적나라하게
아메리칸
유치뽕짝
지하철
구역질
1이
2년
3분
my
st
♥♥♥
감당
개독
개떡
건축
결합
경이
고정
고로
고려
공존
그치만
극적인
기차
끄는
나발이고
난국
남편이
납니다
넘겨
놈들은
다케
대비
던지는
때론
류의
마츠
만나서
모냐
못했
묘하게
무책임
뭔데
미성
미군
미칠
박지
보나
보자고
비중이
뻔해서
소림
순정
습작
씨네
아다
아야
안고
안든다
알아서
얘기가
에니
여지
열린
영활
옹호
와이프
외로운
유리
일상을
잃고
잘보
저것도
지대로
진화
진보
짱나
쳐도
최저
치고는
카타
트루
할거
호소
훈련
흔히
##으다
##기라도
##가치
##ld
##디로
##자막
##사진
##사로
##할수록
##수고
##하이
##음에
##겠나
##거리고
##어는
##어보이
##렸어요
##오랜
##편집
##우니
##운의
##겟네요
##중독
##차원
##연한
##무니
##멋대로
##날의
##겁게
##국주의
##돈주고
##잘봤습니다
##집에서
##졌지만
##맛이
##순위
##끌고
##따름
##땜시
##끝내
영화판
영화처럼
##하는가
##하는구나
평점알바
생각하며
지루하지않고
배우로
쓰레기들
좋아한다
이건머
하는것
재밌게봤다
기억도
여자들은
이상을
몰입감이
남자배우
가슴으로
스릴감
##재미잇
솔직하게
전개되는
한번만
하고싶
잔잔하면서
##만들어도
알바들이
정신건강
감동적이었습니다
장난감
1점도아깝다
배경은
예술을
공포영화의
어느새
비교해
ㅋㅋㅋㅋㅋㅋㅋㅋㅋㅋㅋㅋㅋㅋㅋㅋㅋㅋㅋㅋㅋㅋㅋㅋㅋ
어울리
예상치
그때는
있었다니
분위기의
잘만들어진
그래픽은
가볍고
전작의
청춘의
만큼은
철학적
OST도
##보여주는
소름끼친다
오그라들
##티비로
뒤로갈수록
찝찝한
끝날때
해리슨
드림스
##시청률
깨알같은
이동욱
브래드피
가만히
코스프레
어벤져
클린트
3대
3개
3탄
5번
on
가미
거울
구매
귀가
꺼버렸다
꿈에
넣은
눈과
당최
대여
대책
더한
데려
돈도
된다고
들려
디아
많았던
맞추기
메인
메리
몇안되는
묵직한
바가
반개
방식
배틀
별이
보임
봤다고
부인
부여
비명
사다코
서민
서세
서극
선수
소문
스칼
시민
신현준
실존
안티
안가고
애를
어줍
얼른
에너
욕먹
원맨
이세
자존
잘만
잘해서
잘봤다
저의
적응
정부
지니
진주
짧아서
참혹
창조
처참
캐서린
클라
클라스
편이
한사람
해줄
향해
후기
후유
희한
##이니까
##도못
##주로
##짜는
##아오
##아줌마
##기업
##구조
##가기
##마른
##간지
##화면
##all
##og
##소나
##여배우
##자랑
##사냥
##할거
##할게
##대화
##하가
##하군요
##걸작
##죽고
##겠군
##겠더라
##비스
##비교
##공이
##매니아
##드러
##볼수있는
##보느니
##남겨
##남는다
##된다는
##브라
##급의
##올린
##세이
##일때
##합니까
##행을
##더럽게
##버려서
##권을
##피를
##3류
##존재
##쓴다
##복수
##몰랐
##났는데
##셉션
##윌리스
영화죠
##영화나
지루하지도
드라마에서
내용이나
100분
사람으로
좋아지는
작품인데
있는거
아이들을
##라는건지
##주는게
공포영화를
마음은
무슨내용인지
##가는게
##ㅋㅋㅋㅋㅋㅋㅋㅋㅋ
보기도
OO같은
말이지
영상으로
극장서
실망한
공감되는
대사들
##이라는걸
개인의
스릴러가
아쉬워
그러니
##만큼의
정신을
웃기지
어설픔
##이상은
##이상실
신선하다
수작이
안되요
시나리오는
어색함
어색하다
돌아오
더빙도
주제로
##OOOO
않았으면
##만든영화
후반으로
이름만
알고보니
약간은
없었다면
알게해준
세계를
ㅋㅋㅋㅋㅋㅋㅋㅋㅋㅋㅋㅋ
빨리감
2015년
줄거리도
대작이다
이러한
신기한
신기하다
전문성우
즐겁다
사건을
가득찬
##하던지
취향은
심심할때
와닿는
시원하게
##나올때
##버렸음
외계인이
무언가를
어머니의
시간아까운
불러일으
가면갈수록
영혼을
##ㅠㅠㅠㅠㅠㅠㅠㅠㅠㅠㅠㅠㅠㅠㅠㅠ
떠올리게
작위적인
##신분들은
최초로
볼거리가
봐줄만
목숨을
##이쁘고
프레데터
배급사
못미치는
묻어나는
객관적으로
드니로
심사위원
샤론스톤
엑소시스트
보기드문
휴머니즘
5점은
and
bb
na
가자
가위
각자의
강제
강조
같기도
것만으로도
괴물이
김동
까메오
끝으로
남음
낫지
낮음
넘치고
넣어
당하고
독백
돌이
되새
뒤집어
마사
말할수
말아라
먼지
몇년이
무미
무능
무덤
버리는
별볼
보호
볼땐
봐요
봤었던
부럽
빠지
사토
사전
세트
수치
스파
승화
신성
아랫
아따
악의
안봤는데
않는데
어서
없을까
에어
에반
왜냐
이슈
일이다
잇는
잘했다
재료
제정신
졸았다
주려고
진솔
최곱니다
파란
플레이
픽사
필모
한물
한다면
허준
활약
흡사
##는걸
##이즈
##이더
##이면서
##경의
##으라고
##주려고
##좋았음
##생의
##기면
##기보다
##였다고
##을꺼
##로선
##테이크
##관련
##스페
##에나
##동네
##끄고
##디젤
##수작
##하라는
##당하는
##작정
##어떤
##때메
##볼때마다
##타령
##보잡
##편도
##유머
##랑이
##되면서
##질수
##입견
##바보
##바른
##키스
##았다는
##무가
##전혀
##행크
##갔으면
##졌는데
##열자
##녀석
##밀리
##뭔지
##뭐지
##났어요
##영화중에
너무좋다
스토리라인
감동으로
지루해요
##이라지만
##보다니
1000
지금보니
볼만은
볼만하고
현실에서
##재미없고
대단함
##장면을
나온거
잔잔하니
##만들고
막장의
그러면
그러니까
봐야한다
##만큼도
나왔습니다
느끼지
무서웠
신선했다
초반의
##최고최고
시나리오와
포스터는
주연으로
않았습니다
잔인하게
장르에
그리운
보았지만
나이트
평론가들은
불편하다
식상하고
엉망이고
가는줄
힘든데
유머와
행동이
15분
일어난
깔끔하게
연기자들의
조잡하고
펑펑울
##이유가
안봤지만
안봤으면
13구역
민망한
8점대는
생각나네
생각나네요
인내심을
죽을뻔
지겨운
1점준거
40대
거부감이
##ent
프레디
##죽는줄
왜이러지
김태희
박신혜
어정쩡한
이나영
페이크다큐
이순신
마누라
강호동
3일
gt
강혜
거대
고수
괜춘
그리스
급전개
꼽을
끝냈
나나
낳은
넘버
닌자
닮은
당당
동일
동호
따듯한
롯데
마크
만점을
망치는
망쳤다
명예
못지
문학
문근
미달
믿겨
버티
볼수가
부를
비유
빌리
뽑아
삼국
소리를
소년의
수애
시점
식의
쌍팔
아키
아들의
악평
않았는데
애절한
였습니다
오다
욕나오는
위하여
유역
이요
입고
전통
정점
조직
졸려서
주면
죽이네
중세
중에서도
질투
짜여진
찡한
차지
초등
최종
최진실
취급
클리
태극
토이
틀어주
평은
폴워커
하시는
하기에는
한건
화난다
##이었는데
##지로
##주니
##주에
##아침
##구석
##가루
##박이
##ost
##소니
##정서
##스토
##해짐
##해준다
##자들을
##사라
##대서
##하든
##하겠지
##하던가
##리온
##죽여
##했어도
##고를
##있어야
##말은
##은혜
##드벤
##볼타
##보비
##발연기
##밖에는
##봤었는데
##터가
##빠지는
##안함
##물도
##홍보
##운이
##없으면
##씬에서
##뿐인
##역에
##차고
##란이
##무엇
##멋진
##본거
##본듯
##잼있
##잼잇
##팬더
##낮지
##단다
##선가
##졌네요
##맛에
##반복
##폭행
##5분
##2의
##21
##베리
##녀유혼
##줬는데
##색이
##쳤던
##킬링
##갖고
##센트
##껴서
##맙시다
##촬영
영화니까
##영화에서
최고였음
생각하는데
드라마보다
드라마였다
드라마에요
아니었음
아니었으면
액션으로
한국은
나오게
나오면서
나오는지
##적이며
최악입니다
연출한
모르겟다
이해는
보여서
무슨생각으로
몰입하면서
남자들
반전과
##너무낮
수준이다
코미디로
개봉했을때
##는거임
아쉽긴
노래만
출연하는
보면서도
어이없네
무섭다고
행복해
안되는데
사실에
답답함
웃음도
##내용은
엔딩곡
영화관가서
힘들어
스타일이
들어가는
지루하다고
더빙을
##사랑을
중국의
2편을
이름값
따라한
얼굴도
인물들이
각본과
허무하다
상영시간
불편하고
있어보이
##아이돌
만드나
##하지않은
어려울
##영화중에서
나쁜놈
그래픽도
영화인거
환상의
전편에
SF영화
나라의
촬영기법
어찌나
그랬다
##지못한
화가난다
와닿지
군대에서
결론이
슬픔이
말이필요없는
역할이
소름돋는다
미치겠다
부끄러
부끄럽
흐름을
이때까지
지구를
눈빛이
반성해라
선생님이
니콜키
##이유는
다니는
상업영화
잊을수가
조용한
무척이나
못생겼
깨달았다
오랜만이다
익숙한
꼭보시길
집어넣
한순간도
틀림없다
김강우
카타르
원맨쇼
1억
2개
23
3번째
OC
가운데
갑작
같다는
거리가
고3
광해
광팬
괴작
교차
구원
귀요미
기도
기사
꼭봐라
나갈
나한테
네가
니들은
다듬
동방
동정
동료
된게
들을
마마
맛에
매년
못하게
못하지만
못했지만
발휘
보네
보네요
복제
볼걸
봤어
분은
불사
불꽃
붙여
빡쳐서
빨아
빼놓
사귀
사막
성괴
신부
써도
써야
아웃
안됐
안됩니다
알면서도
어렷
어쩐
어메이
어이상실
없었지만
여우
열정이
오류
옴니버스
외엔
욕하면서
우마
운운
자라
잠든
재해석
전무
제한
제레
조커
졸립
좌파
주위
중심
차인
차가운
채우
철없는
총쏘
콤비
크리
크고
크루즈
터무니
톰행크
파리
패턴
표본
프렌
플래
합리
해적
화해
##지와
##지식
##인상
##기동
##성있는
##ap
##방법
##만세
##래야
##자신
##사기
##하트
##하라고
##시티
##ul
##미국
##장님
##임파서블
##상으로
##보나
##신고
##봤자
##봣음
##남편
##안타
##안나오
##짓게
##우면서도
##씬도
##일지
##일체
##르다
##바탕
##키의
##웃긴
##전문
##린거
##선물
##갑자기
##십시오
##엇던
##랍시고
영화면
영화일뿐
재밌긴
연기나
이런것
감동감동
지루하네요
드라마임
아니겠지
##해서는
사랑하게
좋아하
##보고있어요
작품도
기대해
기대합니다
##이나마
아이리스
그런대로
##것도아니고
보기전
원작보다
##지않을
아름다움을
뭔가를
모두다
캐릭터들의
캐릭터들도
대단합니다
개봉하는
제목도
스릴러는
만드는게
제작된
자체를
미국은
출연료
감정선
무서웠음
모르겠으나
장난해
강추입니다
우리나라에
행복해지는
사실적인
슬프게
킬링타임도
애니메이션을
엄마와
이정도는
얼굴을
##아닌듯
##지루해
감독님이
영화인데도
멋있었다
끝나지
크리스틴
개연성은
0점도
관람불가
##일까요
끝내준다
죽음의
##이런영화
아버지를
희망이
분명하다
느꼈습니다
유머가
현재의
흘러도
나쁘진
분노가
스포일러
섹시한
##소재로
##마음이
##마음에
말할것도
##bbbb
비현실적
조선족
무리수
유아용
시끄러
빵터짐
저급한
박신양
베리굿
능가하는
모니터
눈요기
한정된
사로잡
주옥같은
김남길
용두사미
이선균
여고괴담
정신건강에
별볼일
6살
MC
kbs
love
갈아
건너
고현
공개
과한
관점에서
귀에
김보
껏다
꾸준
나았다
날로
녹화
놈들이
놓친
뉴스
다같이
달아
동의
되길
두분
드릴
디지
때우기
많지
말지
망함
망쳤
맞음
맞은
며칠
명량
모건
몰라서
못볼
못된다
무개념
뭐하러
미워
밥먹
범인은
복수가
봐주
봣다
부재
불만
선교
선입견
소비
속터
수업
스탈
싶네
써라
썩은
씬은
아휴
안달
안전
안난다
안하는데
어드벤
없을듯
여진
연계
욕하는
울나라
육체
윤계
이길
이슬
이만큼
이스트우드
인듯
인줄
인연
인기가
인셉션
일은
일점도
자기만
작정
작작
잡은
정글
정유
주체
죽어서
줄은
중구
중딩
지도
진하게
짧고
짱입니다
책도
첨본다
쳐다
촌스럽고
칼로
터져
통틀
파멸
포스
필수
하야오
한수
한결
한쪽
호감
홍진호
희극
히트
##라구
##이군
##인들은
##인트가
##도전
##아자
##기스
##가수
##마니
##hh
##로버
##테니
##해놓은
##자마자
##수에
##대인간
##하듯
##리어
##음의
##현이
##현우
##us
##장창
##말에
##작이라
##어낸
##매가
##예능
##렸지만
##파괴
##나잇
##볼때
##신선
##민을
##눈이
##달러
##애기
##되냐
##풀이
##점수는
##겨울
##력과
##저질
##ㅅㅂ
##문을
##르의
##필름
##준이
##바가
##못미
##코가
##피니
##욕을
##졌고
##순례
##표를
##새벽
##훈이
##됬다
##꼬마
##등록
##훨씬
##흐름
##밑에
##영화지만
생각하지
스토리텔
감독아
사랑스러
쓰레기라고
완전한
처음입니다
없다면
하는가
##에게서
기억은
이영화에서
일본식
보면볼수록
눈물난다
##스럽지만
음악의
영상을
##재미있고
##지않았다
아름다웠던
##재밌는데
##재밌네요
##다니고
추천함
모두들
모두에게
잔잔함
보다도
##어야할
그러지
봐야함
미국에서
##이란걸
싶은건지
수작입니다
관객은
허접함
들어오
후회하지
있었나
돌아가는
##들과는
##것같고
어쩌고
그녀를
성우를
순간이
안나와서
이리도
천재다
나라가
2시간동안
전달하고자
관계를
사건의
밑에분
##인거같다
정치적
슬픔을
흥미롭다
10년전에
사랑과전쟁
어릴적에
오그라든다
설레는
상상력을
##버렸네
시사회로
할말이없다
무언가가
고통을
로그인하게
봤을땐
잔혹한
고맙다
서부극
앞뒤가
호기심
이준기
잊혀지지가
극단적인
어떨까
이종석
먹칠을
무의미한
각각의
김명민
지저분
1점준것중에
끊임없이
불면증
단언컨
샤를리즈
naver
OCN
어메이징
3부작
500
mbc
no
가치는
각인
각성
간절
개빡
개실망
거침
걸어
관리
급하게
깜찍
끝났다
낚임
난감
날이
낮추
내스타일
놈이
대변
대형
도박
드립
듣보잡
들었음
등이
딱봐도
똑같다
라면
많았다
말하지
모처럼
무거
무작정
뭐하냐
뭔내용인지
발생
방식이
버튼
보시는
볼껄
봤다니
불우
브레이
비긴
사나
사형
살기
수퍼
슈스케
스마트
시기
신들린
심했다
싸우고
안죽
안목
안들어
안성기
암살
압축
어깨
언어
엄태
없더라
엑스트라
여주는
역활
역부족
온다
와진짜
완소
왔어요
욕할
용가리
운명을
울었음
웬만
유니
윤아
으아
의아
이주
이모양
인식
잃지
있죠
있겠다
있었어요
자제
잘라
잘난
잘된
재기
재일
전환
정답
조디
죽어도
중딩때
줘서
줬다
지닌
징그러
짱이에요
채민
천녀유혼
철저히
초콜
최선
키워
택시
터짐
투표
트와
피가
했네
했다는
회사
후에도
흔적이
##는건지
##이미
##지면서
##맞음
##도대체
##기보다는
##간다는
##방에
##태규
##동일
##동석
##동엽
##1은
##자에게
##사상
##시즘
##했었다
##려도
##거림
##어져
##나름
##타이
##보라고
##감각
##신지
##찾기
##개연
##부러
##부대
##부르
##없구
##없다고
##각기동
##포로
##필드
##중국
##중인데
##카메
##야겠다
##차가
##초딩
##란걸
##느님
##날로그
##전히
##린지
##갔다가
##메다
##코의
##뻔함
##꺼라
##알려
##알게
##론이
##2가
##맨이
##놨다
##셔요
##등을
##칠때
##엇지만
영화들을
영화이지만
너무좋아요
재미난
평점만
이런쓰레기
생각해요
생각된다
지루합니다
만들겠다
만들었던
재미없는데
쓰레기도
좋아했는데
지금이
처음봄
한국형
1점주
별로지만
연출로
우리도
이야기와
괜찮았어요
##되는거
그런건
일본애니
볼만하던데
##하나는
##였다니
가슴찡
말이죠
음악만
##재미없는
필요할까
코미디의
코미디를
이걸로
가족끼리
나온다는
영화에선
제목부터
조금이나마
내용도없고
시리즈로
1편도
왜이럼
##할수있
감정의
친구들이
친구들이랑
완벽히
당시의
역사의
진정으로
있었을까
엄마는
##OO노잼
말도안돼
잔인함
##작품이
단순하고
알았지만
자연스럽고
멋지네요
멋있어
살인을
더럽게없다
그림이
줄거리에
이리저리
무서운거
전설이
완성도를
##그래서
##기대하고
요소는
여성의
인상깊다
인상깊은
인상깊었다
와닿는다
용서가
후속편
##하지마세요
시선을
난해하다
##ant
풋풋하고
죽여버리고
##이해가
분들께
이뻐요
생생하다
생생하게
새롭고
거슬린다
초등학생때
다시보고싶은
최민식
기준으로
브루스윌리스
안된다는
하여금
별하나도
못봐주겠다
질질끌고
무식한
암울한
1회부터
멀쩡한
신민아
서서히
##일라잇
어벤져스
4번
4점대
PD
Very
se
ㄱㄱ
ㅅㅅ
ㅜㅜㅜ
가게
간신
갈릴
강시
강철
개성이
결투
공격
공효진
과감
국뽕
그은
근육
기계
김래
김규
김창
끌려
남이
낮춰
너도
넘기
녀석
농구
눈뜨고
대리
대학교
도움
되냐
되었
때부터
라디오
로긴
마술
말한다
맛을
맥아
먹을
몰래
몸부림
무려
무튼
반가
반해
발랄
배슬
본다고
본영화중
볼거리는
분석
빠르게
색감이
선배
설정도
세번째
수호
순위
숨이
시네
신뢰
싫음
쓰잘
아시는
아날로그
알수가
알수있는
야마
어려서
없구만
없잖아
오르
옥의
와이어
외화
웃다
으으
의식
이질
이웃
이룬
이스라
인공
자전
장만
재평가
절라
정은
조재현
종북
좋다는
진자
책이
첫장면
큰일
태양
튀어
피디
필립
하필
함정
해놓고
했었는데
##라는데
##이이
##성공
##네용
##ak
##소장
##희를
##러리
##와라
##18
##13
##해졌다
##할영화
##대결
##리브
##현지
##고에
##매의
##보려
##처리
##급으로
##우치
##내면
##올시다
##겟지
##겟음
##애를
##명도
##넘치고
##중인
##차라리
##았다고
##슬프다
##무협
##겁니까
##본사람
##받지
##더의
##용도
##햇음
##햇던
##돈다
##30분
##슨은
##7년도
##침을
##별루
##쓰는데
##끼고
##탈리
##ㄹㄱ
##몰라도
##깜짝
재미업
이런데
생각과
감동에
감동까지
보고서
드라마틱
드라마인데
배우다
내용전개가
아니에요
사람인데
좋은거
작품이라고
##다가도
나오길래
##적으로도
명작인데
재밌게봄
재밌게봤습니다
기억남
기억하고
괜찮았고
장면에
만든것
##연기와
공포의
일본판
유치하기
남자들은
##드라마로
모든면에서
아름다워
억지웃음
실망을
모두를
배우들만
배우들로
대박이
대박나
대박입니다
계속해서
대단하네요
잔잔하다
보다보면
어디선가
조금이라도
아쉽습니다
그러고
노래와
웃기긴
##할수밖에
감동적이었어요
초반은
재미가없다
인상적이다
후회한다
실화라서
얼굴에
로맨스를
CGV
네이버에
이미지가
상황에서
이후의
평가가
보니깐
허무하고
2015
멋있음
판타지를
끝나면
확실하게
흥행을
흥행에
중요한건
누구에게
리얼하게
보여주지
줄거리를
안타까울
안보는데
흥미진진하고
아버지와
바보가
미화하는
바라며
리메이크작
만들었다면
허술하다
cg도
cg가
##걸까요
미래의
예전의
##아아아아
제작진이
##명이서
##기억에
말이필요없음
시선이
무협영화
힐링이
돈아까움
마이너스는
연결이
밋밋하고
떠오르
주말에
21세
안쓰는데
끔찍한
##ㅜㅜㅜㅜㅜㅜㅜㅜ
##인줄알았는데
##이쁘다
저평가된
평소에
기괴한
엽기적인
##분위기
##ight
미션임파서블
스펙타클
##로맨스
식스센스
임수정
충무로
이범수
버금가는
사춘기
차인표
중구난
스토리텔링
트와일라잇
##OO노잼OO노잼
이스라엘
2회
7점은
av
간접
감싸
강예
개쩌
걸레
것들은
경기
고래
골든
곳이
곳에서
공각기동
광기
그이하
극의
근본
나가고
남주인공
내리는
노인
놀람
높네요
눈높
다문화
독재
된다면
두뇌
들었습니다
똥칠
롱테이크
리플
마땅
만원
맞고
멋집니다
몇일
못난
무방
무뇌
뭐든
뭘말
미루
미쳤다
밀어
박상
박용
발암
발톱
밝고
밝은
벌어지는
베니
본적
봉준호
봉태규
봤으니
비가
비비
빈디젤
뻔함
사서
사나이
생겨서
선전
성숙
수다
스들
스톤
슬로우
시바
신앙
씬이
아시
아일
아르
안질
양반
없었습니다
없으며
여실히
연령
오덕
왜들
왜저
왜그러
원망
윌스
유대
유전
의존
이와
이시
이명
인피니
일방
일드
있기에
자는
자빠
작살
잘한
잠만
재회
전성
좌절
죄책
죽었다
줄줄
줄거리는
중고
지리
지원
지속
집안
차원이
청순
추상
타잔
토미
통한
패스
팬인데
하차
한때
한회
했다고
했어야
했다면
헐크
호평
홀로
획을
##다보니
##이구
##니잼
##경은
##인것같다
##면도
##진씨
##생겼
##같지만
##을수가
##vs
##관리
##와요
##1ㅋ
##해여
##디에
##대작
##걸고
##했었던
##고요
##um
##미남
##적일
##들인
##매우
##분들도
##때의
##나쁜
##나왓
##타닉
##보았다
##보이고
##봤어
##봤는지
##개로
##빠이
##눈물이
##남자의
##부모
##부탁
##과도
##운동
##없냐
##써서
##되었
##력은
##제왕
##즈를
##포스
##야의
##야야
##차게
##먼이
##느와르
##연습
##웃겼
##웃기고
##국민
##햇지만
##돈이
##피의
##선징
##ㅜㅠ
##30
##반도
##헤헤
##탄탄
##78
##책을
##왔지만
##블랙
##흐흐
##뒤로
##퀄리티
##렬한
영화보면
영화평점
너무재밌게
정말재밌게
재밌지만
재밌었어
연기들
연기들도
보고있
배우에
배우고
10여
감독이나
만들었는데
보는사람
좋아함
##보고있는데
작품들
액션씬이
좋았네요
있는것도
하나를
한국인이
1점줌
괜찮을
##정도다
##리는게
마음도
남자친구
매력도
애니로
##는다면
극장개봉
필요는
억지스럽
수준도
추천해주고
공감은
흥미가
잼있는데
나오는게
스릴러의
아쉬웠다
훌륭했다
나도모르게
어린애
영화로써
나와라
남는영화
도대체가
모르겠어요
수작임
친구를
안되게
전쟁에
어색해서
배경을
##스토리는
더빙판
몰입도는
집중하게
##감동적인
##감동적이
하지말고
나올수
이쁘네
196
##이야기를
티비에
2000년
평가할
ㅋㅋㅋㅋㅋㅋㅋㅋㅋㅋㅋㅋㅋㅋ
소설의
허무함
##아닌가요
##액션이
멋있게
TV로
끝나네
확실한
리얼한
돋보임
댓글알바
끝내주
끝내주는
##시리즈는
##시리즈중
3점준다
이러면
연출력도
조연들
##줄알고
만큼의
어렵게
잘생김
메시지는
안맞고
다가오
다가온다
하루종일
자막이
해피엔딩이
스케일도
##소재를
시시한
의심스럽다
섬세하고
있어야지
타이타닉
##가족이
##요소가
수고하셨습니다
성격이
기회를
안쓰러
다루는
아버지는
로드무비
스피드
한지민
난무하는
##채널에서
아이디어가
오유에서
##♡♥♡♥
ocn에서
토요명화
니콜키드먼
엄태웅
##선징악
2번째
3편이
5살
5년
6점이
88
No
but
ever
lt
감우
고은
고딩때
공식
구할
구려
구하기
구석이
균형
근친
기막
김상
꽃보다
끊어
나지
나두
남김
높냐
눈은
대다
대하여
덕후
동심을
뒷통수
디비
딴짓
또한번
또다시
마저
마동석
망한영화
먹은
메릴
몰려
못된
무삭제
뭐이런
뭔내용
배두
버림
보내는
본사람
봤어야
비오는
빠르고
사정
산다
살렸
살릴
색다
생겨
생뚱맞
서사
성냥
소오
속상
송중
수학
수단
수밖에
심장을
쓰레
씹노잼
아들을
안드로
압박
애썼
앤딩
약하고
약빨고
양산
오죽
올만에
왕따
욕설
욕하고
욕나옴
용기를
우베
웅장
유해진
이틀
이문
이입
이모
있을듯
장치
적어
점을
제주
조아요
존1
종종
지네
짠한
참다
참내
초점을
최수
최대한
최후의
최선을
치곤
쿠엔
통찰
특집
팬티
퍼펙트
평정
폴리스
피어
하시길
한표
합시다
해학
호프
홍수
##는것
##기리
##구로
##가나
##마의
##ast
##소사
##만나
##만원
##한건가
##스티
##러지
##에이
##1때
##해지네요
##자이
##자연
##사부
##대표
##걸이
##죽이는
##했구나
##고만
##들인가
##신듯
##번도
##물고
##된다고
##급이
##우우
##울고
##루니
##토가
##되어서
##되어야
##레드
##레쉬
##력도
##질을
##ㅅㅇ
##노키
##포장
##문이
##르르
##입장
##야만
##척하는
##속이
##결말이
##슬픈
##본건데
##행이
##받았
##실한
##트와
##호는
##회의
##평론가
##너스
##56
##금지
##놔서
##페이지
영화음악
재밌냐
평점테러
생각밖에
스토리전개가
##이라는거
사람으로서
##다는건지
시간여행
좋아라
이건아니다
작품으로
기대보다
기대하면서
최고의드라마
좋았어
있는영화
나오길
나오지만
기억하는
기억속에
여자도
여자와
##연기잘
반전영화
반전까지
한번에
실망시키지
개봉작
표현을
잼있었음
자체로
##아니야
왜이런
시작한
따뜻하다
신선함
무섭지도않고
우리나라가
행복했습니다
부분에
이딴영화
예술가
만들었네요
캐스팅에
몰입도를
충격과
말도안되
뛰어나다
이름으로
비슷하게
영상미에
로맨스도
노잼이다
사회를
어울린다
화면도
##중간에
물론이고
감성적인
##하지않는
돋보였던
엉망인
몰랐던
먹먹해지는
진실은
목소리도
천재적인
노출이
우울하고
예고편에
어찌보면
남아돌
##만으로는
내생의
일상의
11점을
형편없다
##마음을
18세
일반인
돈아까운
##나왔으면
섬세하게
##하셨어요
##버리네
생생한
##만드네
최강의
떠오른다
고마워요
야동을
스크린으로
모를까
신비로운
내면의
보여줬다
인상적이었다
화끈하게
장애인
140
##극장판
위로가
##선생님
기존의
무난한
어떨지
피터팬
나중에는
어리석
##질않나
판타스틱
납득이
본질을
지독한
로멘틱
클라이막
매미OO있네
##아버지가
안젤리나
피라냐
무미건
쌍팔년도
장만옥
1박
vs
ㄴㄴ
ㅇㅇㅇ
가는데
가네요
가나다
갔다가
개명작
개졸작
경쟁
고만
고고
교도
권선징악
그후
금지
금성
김주
김유
꼬아
끼어
남지
남한
내평점
넣어서
놀랄
높음
눈감
당할순
동원
동참
되는지
될것
될까
둘러
들었는데
딸을
딸의
때까지
리브
맛있는
맥라이언
맥어보이
명성
무심
뭐죠
박한
박영
발악
방어
배운
법칙
벗고
베를
별을
보장
보였다
보이네요
봤으나
비급
삼각
새드
서우
선율
성질
수식
수술
스폰
쓴다
안성
안해
않다는
알라
애한
야이
어필
언더
없구
에혀
여동생
여고생
역을
완결
완존
용의
울었
원초
자격
잠이나
잡을
장점
잼따
저만
저건
전파
전하고자
점도
존스
좋으
죄를
주의
진리다
초라
타짜
터질
팬이라서
평작
폭파
학원
한이
한달
할듯
합쳐
해줘서
했어
휴지
흔하디
히치
##이웃
##이었습니다
##니발
##맞아
##맞추
##으므로
##아들이
##생크
##df
##방을
##한것도
##스탈
##14
##않는
##었는
##사무
##대신
##대사가
##걸린
##ust
##uck
##미와
##미달
##은이
##비한
##비의
##예고
##ir
##나를
##오버
##보냐
##유천
##봣습니다
##남이
##씬을
##일도
##일수도
##즈는
##역이
##역으로
##조의
##설명
##카시
##모니
##바다
##전기
##겁고
##완벽
##린데
##실에서
##환이
##버렷
##찍은
##런스
##회부터
##누군
##앤딩
##론데
##위로
##2는
##퍼스
##릴라
##쪽으로
너무하네요
재밌겠다
최고지
생각안
생각지도
재미있던데
재미없었던
사랑입니다
다시보
좋아하면
작품성을
기대하게
##없는게
나오니
나오나
그래두
이야기들
괜찮지만
##라는거
마음속
일본영화의
##배우를
##하나의
다른사람
##하기에는
가슴따뜻
매력적이고
영상물
##재미는
##재미도
##재미있는
만들어내는
##보는거
재밋네
대단해
개봉하지
##장면만
내용이지만
어디에도
잼있고
잼있었다
기분이다
개인적
정신없이
웃기려고
훌륭합니다
출연자
전쟁은
추억돋
엔딩까지
역사는
예술이다
만들었지
애니메이션은
돌아가고
엄마한테
##감동을
잔인하지도
여주인공도
빠져든다
##것같아서
얼굴은
네이버는
네이버에서
##이야기가
알았습니다
이것만
다르겠지만
##하자마자
##시대를
안타깝지만
개연성없는
돋보인
먹먹하고
죽음이
이러지
알려주
전편을
노력한
노력은
성장영화
##다시봐도
알겠으나
속편은
남녀의
발전이
새롭다
이정현
이럴수가
깨달음
이민기
이민정
보여줬는데
상관없이
어이없게
디테일한
재능이
근래에
하여간
하여튼
애매한
개성있는
지겹고
여자친구랑
최소한의
기타노
개나소나
기분나쁜
볼까말까
숨막히는
손꼽히는
나비효과
어중간한
친일파
엉덩이
흔해빠진
어쩐지
간신히
중구난방
1은
1번
27
7번
AV
ㅅㄱ
가다
강우
강하다
개짜증
거리
건진
건드
건담
과하게
구리고
그중
근대
근거
급급
기어
기원
깨어
꺼버림
나았
나같은
낚이
날카
내보내
너의
농락
누워
누굴
다는
대세
돋는
돋는다
돌리도
되니
되다니
두렵
떠난
마련
말길
말대로
맙소사
망했는지
맞지만
명곡
모래
무성
무신
문화를
미련
박하
박힌
반항
베르
베낀
베끼
보물
본드
본후
빠졌
사연
사례
상당
서태
성지
속지
손을
손오
쇼킹
쇼생크
스며
슬플
신동엽
실력이
싫어서
심하네
쌍욕
썩어
씨리즈
아리
안경
안정
안내
에스
에디
연구
오리
워킹
위선
윤제
은행
이들의
이전에
이감독
잃었다
있을때
작년
장기
장백
재벌
저딴
적합
절절
조악한
존나게
종결
좋으면
주는데
지못미
질주
짧지만
찍어도
찍어라
찾게
추적
치우
치닫
테스트
투성이
피로
할것
해군
헛소리
호화
호강
휴가
힘듬
##다이
##지라
##지길
##인한
##데리고
##면에
##가보다
##였는지
##을려고
##ab
##정신이
##로이
##관에
##해질
##해줘서
##길이
##디스
##자다
##수없다
##리던
##치도록
##했냐
##했을텐데
##XX
##미로
##미래
##미안
##미녀
##있었
##있다고
##비판
##어른
##어설
##어쩔
##분동안
##밖의
##봤나
##봤을때
##개인
##빠지고
##안다
##물어
##그려
##브로
##산이
##없었던
##겟어요
##토벤
##씬만
##망작
##저는
##독립
##프가
##졸라
##입은
##설정이
##카의
##차기
##바뀌
##먼의
##느꼈
##무어
##랜든
##겁다
##본다면
##군데
##잤다
##져도
##찍는
##순수
##커스
##락이
##근래
##등이
##복이
##허허
##클럽
##났습니다
##잔데
##잔아
##총사
##검색
영화보다는
##영화관에서
너무재미있
재밌구만
최고작
이런드라마
생각남
생각하니
보고또
지루했던
사랑이라는
좋은영화다
##보고나서
이거보면
봤는데요
##지는게
있는것
최악이었다
별로네
연출이나
이야기로
괜찮아요
##리는거
유치하게
유치하긴
볼만한영화
##하기만한
눈물샘
눈물나는
전개를
한번보고
이제껏
억지스러움
실망입니다
추천해요
연기력을
배우들과
표현된
잼있어
##봤는데도
아름다운영화
제작한
그러다
미국에
나왔는지
##만한데
영화로는
나와는
장난이
괜찮은영화
사실은
분위기만
지루함과
##부분만
##한거임
졸작이
##아깝네
유쾌하다
코믹물
주연이
있었을텐데
엄마를
충격적
보지말고
##들과의
않았을
잔인하기만
순수함을
엉성함
실화라고
감사드립니다
2004년
2005년
2003년
잘봤음
##어가고
존재가
어울릴
2013
누구냐
즐거웠다
생각해보면
살인자
감성에
시절이
안나올
바람에
내인생최고의
되어버린
완성도는
신기할
노출도
전기세
우울할때
관계가
행동을
그려진
러브라
저예산으로
하루하루
해주길래
미치지
아침부터
부끄럽다
비극적인
등장인물들이
그렇다치고
해피엔딩으로
동생이
##시킨다
무시하고
외모가
인도영화
주변에
찌질이
##작가님
투자한
##하진않
##왜이리
하늘을
##로써는
##바이벌
어쩔수없이
##zzzz
주지훈
아담들러
떨어지지만
왔다갔다
블루레이
##최악의영화
앞서간
놀래키
##영화제에서
유치원생
##리의리의리의리의
오페라
관대하다
지상파
정재영
미개한
파트너
인터스텔라
미성년
토이스토리
채민서
초콜릿
김래원
3명
ebs에서
ne
가물
강박
개도
거임
거친
건달
걸릴
견디
고루
고향
고집
곳에
관광
구림
극을
금치
금요일
꼽는
꼽히는
끝장
낄낄
남들
남상
낮을
넘친다
노다
늘어지는
다죽
대구
도가니
들은
듯하다
따른
떠나는
리부
마시
마시고
말까
말하려고
말장난
머니
멋졌다
면도
명절
목소리는
못되는
못하나
못알아
무어
무리가
물질
뭐하자
뭐이리
믿을수
바꿀
백만
버스
법한
베일
베토벤
변명
변함
별점은
보인
보편
보시고
보느라
부성애
불교
브라이언
빌어
사냥
산타
색감도
서른
성폭행
세대
소나
소련
수영
스러
시킨
심어
싶다는
싶을때
아는데
약을
약해
였어요
예다
오줌
오디션
옷을
욕나오
욕심이
웨스턴
유년
윤재
이지만
잃어
입은
자료
자식을
잘모르
잼없어
전범
제공
제2의
지내
지식
지능
지들이
진수를
쩔고
찌푸
찍었다
찍었을까
찾은
찾았다
초호
최신
추석
침몰
코스트너
콘서트
파헤
하니까
해보
해운
해보고
했지
했고
했네요
행운
향수를
형태
형식
효민
휴잭
흐른다
히스
히틀러
##이기도
##이영화는
##주를
##요일이
##가득
##네유
##여기
##여름
##스랑
##10년
##대요
##하려다
##리라
##시장
##시노
##시윤
##겠구나
##람이
##상식
##분들의
##오로
##감으로
##놈들아
##신다
##봤을까
##개판
##터지는
##빠지게
##남는영화
##그레이드
##우월
##우면서
##달리는
##류가
##천만
##천국
##괴물
##일지도
##제국
##망한
##저예산
##질러
##포트
##넘어
##긴데
##원래
##모루
##란게
##준영화
##키가
##싶네요
##받아야
##많아
##많은데
##코드가
##크는
##회를
##년들
##잇다
##4점
##위의
##취급
##9점
##백한
##끝도
##끝날
##축구
##블록
##몰라
##밤에
##펑펑
##굳굳
##멸의
##탐정
##엉성
##돼지
영화까지
감동이네요
지루하기도
##이라이트
드라마중에
재미없으면
보는건
없는지
##다고해서
한국드라마
그래요
우리를
명작중
느낌으로
아이는
많이들
##되는게
##정도면
##주는거
일본에
##ㅋㅋㅋㅋㅋㅋㅋㅋㅋㅋㅋ
눈물나게
매력있고
스릴은
##재미없네
아직은
##재밌는
긴장을
대박임
대단하다고
개봉할
잔잔히
제목처럼
요즘엔
##생각해
##하네여
스릴러도
않은가
정신세계
1편에서
나왔을
느끼는게
감동적이예요
행복은
추억에
##한거야
포스터보고
오래오래
##보니깐
충격적이다
##주의에
##주의자
주제곡
어느것
궁금하게
##감동이
상상도
이름에
따라서
이정도의
이쁘네요
##쓰레기다
##이었다는
##이었다면
B급도
##으니깐
발연기가
느낄수있
느낄수있는
##재밋고
##필요가
존재한다
##분들께
기다리는
있을까요
어쩌구
2012년
##액션영화
처음부터끝까지
크리스마
화면은
좋은영화입니다
시절을
아쉬운건
과거에
흥미진진하게
진실이
바보로
환상을
스타일은
사라지고
연출력과
경찰이
무엇보다도
조연들의
어렵고
피해자가
성공한
않았다면
짜증나네요
철학이
프로그램이
아저씨가
조폭영화
기본적인
소녀시대
몸매는
악역이
보이는데
##티비티
##나이에
아픔이
기대안하고봤는데
바꿔라
달달하고
할머니가
김수로
여태껏
DVD로
여름에
열받아서
무한한
부실한
유아인
##인줄알고
안가네요
임팩트가
두려움
이수근
애국심
편안하게
외로움
흡입력이
평점조절위원회
한방에
다시보기로
그림체도
건질게
머릿속에
되돌아보게
모니카
##아름다운
보석같은
엉뚱한
역겹고
가난한
박해일
나홀로집에
서스펜스
유오성
잠수함
서인국
에니메이션
자존심
강혜정
꾸준히
쿠엔틴
0개는
1보다
2도
3박
50분
7년
90년
9점이
am
bl
bor
sm
ㅈㄹ
가지게
개가
개쩔
개쩐다
것으로
곳곳에
교수
구나
그레
긴급
깔깔
꼬라지
나았습니다
나혼자
내놔
네임
놀이
놀라고
높고
놓칠
뇌리에
니미
님들
다다
다코
다좋은데
대립
대기업
되버린
두서
뒤통수
들었
등에
또보고싶다
똥싸
뜻이
리더
리스트
마피아
만만
망상
매니
멈출
몇년전에
모여서
목적이
묘사가
무표정
미치게
미묘한
박스
박민
박철
박유천
밖에는
반짝
배제
병원
보라는
본다는
봤어도
봤더만
브금
뿐이고
사골
사소한
살해
생김
서영
서유
소수
소외
수습
스테
슬슬
시키는
싱크로
싶었음
싶어지는
아부
아트
안의
안남기는데
않냐
얘네
얻은
여인의
열연이
오열
오드리
요란
우월
우정이
운전
울림이
웬지
유우
은희
이가
이고
이것을
인연이
입을
있다가
잉여
자부
작업
잠안
장이
장인
재연
접한
정경
조성
조롱
좋구
좌빨
주진
주장
주다니
주고싶은
죽어나
중견
지껄
짜고
최지우
충족
치면
타워
탈락
탐욕
투박
트렌
포스가
하기도
한듯
할일
해병
현장
획기
후려
흘릴
히스레
##이없다
##지경
##인형
##인들에게
##으라면
##으려나
##진지
##아픈
##가치가
##마라
##네ㅋㅋ
##os
##소서
##정씨
##만함
##만해도
##한심
##여러
##의사
##러브
##에여
##해낸
##길바
##할게요
##하겠네
##하더군요
##시걸
##했더라면
##있었지만
##거고
##장군
##작가가
##비도
##게만드는
##게리온
##드니
##오의
##편에
##개뿔
##그림
##부부
##산다
##없다는
##없었음
##레터
##노는
##포드
##중요
##중심
##모토
##란의
##바꿔
##슬링
##전과
##본영화중
##8점
##확인
##광수
##코비
##든데
##크를
##피가
##집중
##3점
##회까지
##폭탄
##누가
##론을
##외엔
##2편
##2를
##셨나
##막극
##쳐지는
##블리
##짝퉁
##콜세
##xx
##헌터
##영화이다
연기들이
최고예요
##라마바
생각날
생각나고
스토리라
스토리며
##이라는데
아니더라도
재미없던데
사랑할
좋은듯
좋은작품
마지막에는
기대됨
기대하며
하나다
처음보는
한국이
한국식
이게무슨
하는구나
아깝게
명작으로
명작이지
명작중의
##있는지
##있는게
느낌과
주인공인
주인공으로
아까웠
현실성도
결말만
짜증날
짜증났음
눈물날
20여
원작인
인간에
##스럽네
음악까지
필요없고
수준낮은
##재밌었다
하고자
실망스러
요즘에
시리즈물
자체의
이유도
어이없어
친구의
친구와
##밖에안
관객들에게
##해야만
##해야하나
##지가않
봤던건데
##들에게도
코믹도
포스터를
후회된다
오래도록
돌아온
##좋아해서
궁금하네요
재밌음ㅋㅋ
따라가
##ㄷㄷㄷ
비교도
비디오용
감동이에요
시즌4
알았네요
상황과
##말이필요
사회가
별점테러
##거같아서
보았네요
##보고싶은
좀비물
질질끄
2010년
평론가들이
볼수없는
케이스
TV판
흥행이
즐거워
생각해볼
사이에
자극적이고
##시리즈를
##이런거
##사회의
이러냐
바보같은
바람피
있다는걸
유머도
보고나서도
뜬금포
##아먹는
15년
누군가가
만큼이나
외국영화
메시지도
안나오나
##일뿐이다
흥미롭지
산만하다
정서에
조잡하다
##무서워
표정연기
할말없다
씁쓸하다
이루는
##나와라
대부분의
바뀌고
발견한
극치를
가슴아프
이용해
##영환줄
기발하고
##ome
##그렇지
이해안감
설득력이
싶을정도로
제외하면
##아쉽다
기대했건만
1인칭
고등학교때
편안한
압도적인
사이코패스
왜이러냐
불가능한
암걸리는
담백한
다녀온
데스노
신은경
쓸쓸한
긴박감
올레티비
안무섭다
저지른
유승준
쿵푸팬더
이자벨
가깝다
##마무리
노무현
안나왔으면
오토바이
에반게리온
1점준거중
제레미
합리화
윤계상
이슬람
##1ㅋ1ㅋ
베를린
노다메
초호화
3년
4점이
Bad
ch
do
go
개운
거시기
것일까
계시
계단
고쳐
고스트
그보다
그사람
기반
기절
김정은
꽝이다
꾸역
끌지
나른
나까지
나라는
남니다
남아도
낫네
눈도
늙어
단어가
당한
대처
동급
두가지
뒤돌아
드게
따지
류덕
막무가
먹어
멸망
모지
몰고
무모
바램
보수
보낼
보지만
보내고
봤는대
부패
불멸의
브리
빌려서
빠지고
빨려
뻔뻔한
뻔하디
사장
사는게
살지
살자
살았
샤말
섞여
세븐
소박
속시원
수목
스러운
슴가
안재
안듬
안믿
안주는데
알면
애는
야쿠
억압
얼어
에단
여긴
여군
영호
오정
와나
유도
유작
윤시윤
으악
이글
일기
자이
장선
장담
재판
저격
저번
저능
전두
정지
조한
조미
조명
좌좀
주구
주식
주었다
중심으로
줘야지
지연
지날
지나고
질이
짝사랑
짠하고
짱인듯
차기
책은
처벌
청소
촌스럽지
최우
춤을
춤추는
치부
침략
쿠바
크라
탈을
탕웨이
파치노
페이스
편히
폰부
피노키
하더니
해소
해설
향수
홍경
황진
황제
후후
후레쉬
##이시
##이서
##이구만
##지던
##인건가
##데스
##짜고
##좋앗
##좋았고
##아웃
##기전
##기분이
##구여
##마을
##마에
##같지
##같애
##같았다
##박스
##을정도
##v에서
##th
##재가
##정아
##로봇
##한이
##테스크
##의식이
##해피
##길을
##디다
##자니
##것인지
##리얼
##걸음
##값이
##치면서
##죽음
##했기에
##려구
##미아
##거를
##습니
##비로
##비하
##비언
##어지
##어렵
##렸어
##ra
##상관
##파는
##드에
##나는데
##보가
##보지말
##신과
##남주
##남네요
##안이
##안보고
##된거
##내라
##내놔
##없던
##루요
##애씨
##일어
##각본
##노무
##문학
##조각
##설마
##쩌네
##바에
##합이
##왕짱
##느낀
##종의
##슬픔
##연은
##웃고
##무라
##범이
##삶을
##못한다
##더구만
##갔음
##많네
##찍고
##슴다
##햇어요
##됐지만
##티네
##불륜
##계에
##꺼임
##먹어
##놓는
##EC
##닥터
##녀는
##빈이
##줬던
##십니까
##쁘다
##갈수
##령이
##빨로
##밀한
##끝에
##익은
##양반
##릿한
##칙한
##클리
##떄문에
##났고
##D로
##쯤은
##엉망
##몇번
##팍한
영화ㅋㅋ
영화에는
영화보단
너무했다
재미까지
재미더럽게
##에서부터
이런류
스토리만
##들이여
##까지가
지루했고
다시보면
좋아하던
마지막을
하나경
나오냐
나오지도
##적이었다
최악은
1점이다
##인데요
별로던데
별로였던
우리집
##이나네요
이영화도
이영화로
공포감
일본영화가
현실감이
다른게
##ㅋㅋㅋㅋㅋㅋㅋㅋㅋㅋ
말이야
애니의
원작도
##스럽습니다
음악영화
##시간을
이제그만
여운과
가족은
가족들
가족드라마
표현하는
조금더
##생각하고
##생각하게
느껴져서
느껴지네요
부족했다
##아니지만
아까운데
이유없이
살아있다
우리나라도
시청율
시청자가
영화였네요
안되지
만화로
완벽했다
다큐로
이딴영화가
##부분을
##한거다
들어가서
못한게
있었지
있었으나
찾아가는
미친거
불쌍함
##ㅠㅠㅠㅠㅠ
이름도
얼굴만
프로트
전체관람
인물을
알게되
교훈적인
소설이
나이를
자연의
예상되는
##스타일이
2013년
100배
불편함
누구를
있었다면
만드는데
댓글이
편집도
순간순간
##봐야겠다
진지하고
결혼식
결혼하고
안나와
후반부는
웃긴데
그럴듯한
복수는
저질영화
##방송에서
성장기
놀라움
풀어가는
나에게도
잘만든영화
잘생겼다
##지도않은
##보여주
스트레
그걸로
포장한
현대판
놀랍고
압권이다
나타내
그립네요
포기한
악당이
##반전이
드러나는
시각으로
발전을
시걸의
반복되는
뭉클한
고마워
영혼이
시간가는줄모르고
내면을
##♡♡♡
양심도
류승룡
상관없는
다시보고싶다
답이없다
언니가
거부감
낚였어
안가네
적절하게
두려워
새로울
담겨져
따분한
dvd로
밀려오는
시간때우
암걸릴
제시카알바
녹아있는
파격적인
안무서움
매끄럽지
안좋아하는데
애잔한
this
하지마루요
안무섭고
소소하게
심리묘사가
돈아깝고
서정적인
브로디
내취향은
유익한
위안부
기대안했는데
##예쁘고
따스한
쥬라기공
풍부한
소방관
##오랜만에
쓰잘데기
안드로메다
1기
2명
26
7살
SM
not
or
sbs
up
강남
갱스터
검사
것의
것입니다
결제
경쾌한
고난
골라
관능
구입
구석
굿바이
귀한
그정도
극대화
길들여
김두
김옥
깊다
끌리는
나게
나니다
나지만
남습니다
남들이
낫다고
늦은
대만
도로
돋았다
되요
되겠다
되었지만
드리고
디젤
디자인
딸과
때로는
루이
리차
리들리
마니아
많이나
말곤
맞을
멍때
모아서
몸짓
못해도
못봤다
무자
문채
물리
민간
박현지
반의
백미
보냐
보아야
분신
불끄고
블레이드
비포
비춰
비둘
빠지지
상쾌
색다르
서글
성동일
세기의
속아
손이
솔찍
송윤
시점에서
시잖은
시어머니
심금을
싶고
쌍벽
쓰면
안줄
안하는
안만들
안봤다
않길
않겠다
양키
얻을
없으면서
여정
열정을
오른
외에
욕나올
울음
울버린
웃어
유인
유희
유산
이국
이빨
이뿌
이어서
이들을
이기는
인과
인위
입가에
있도록
자매
작렬
잠재
잡지
장화
장예
장황
재활
잭슨
저한
저에게
전의
정성
정체가
제라
제맛
조건
조화가
존쿠
주네
주저
주는거
주셔서
진출
질러
총으로
친절
크크
클럽
킹왕짱
타인의
토르
톱스타
투입
팬이지만
평가는
포스트
하실
하우스
하이라이트
학예
한게
한채
향기
허각
화나는
활동
##지민
##지노
##인기
##으시
##으려다
##도현
##짜리는
##아역
##기네
##기들
##마를
##마누
##화로
##로게
##워라
##워야
##1개
##었을듯
##자신을
##하셔서
##것들은
##것만으로도
##리니
##리리
##했을듯
##겠습니까
##거북
##거같은
##거린다
##적도
##비행
##들었다
##들때문에
##ry
##gm
##ge
##파리
##드레
##나나
##나보네
##발랄
##봤고
##개월
##눈빛
##안을
##된듯
##된영화
##부르는
##산으로
##배를
##세대
##세용
##울이
##울수
##점점
##일로
##일드
##각을
##저렇게
##노쉬
##조가
##설레
##모도
##차이가
##바꾸
##꾸역
##본적이
##못할
##될까
##더블
##용석
##많아서
##단말
##잘안
##잘봤어요
##트랙
##티스트
##호강
##뻔하고
##잡이
##평이
##폭발
##너의
##앤더
##탄생
##위에서
##찮은
##증에
##셨다
##셨어요
##릴수
##강의
##줬음
##GM
##락을
##금이
##별점
##쇼스키
##엇으면
##짝짝
##폰으로
##쉽게
재미다
정말최고
재밌으면
평점높
평점과
평점으로
생각됩니다
스토리까지
감동먹
지루하긴
드라마지만
내용이라
내용없는
10년도
만들까
만들었음
재미없었어요
사랑함
쓰레기통에
이거밖에
없는것
없는거
있는건지
하나만으로도
처음이었다
한국을
아깝다고
우리와
##있는듯
괜찮았지만
여자애가
그런걸
공포와
일본어
볼만했던
##배우도
##사람만
##사람들의
현실적
남자랑
매력과
만들어놓고
##보는중
##나오지
가족들과
대단하고
대사에
나온게
표현은
제목으로
기분을
##생각나서
나오는건
떨어지네요
느껴진
시리즈중에
중간까지
제작자
웃기기도
##거리며
살아갈
감정에
감정표현
영화로만
모르겠습니다
친구한테
주는건
관객들이
답답하게
엔딩도
다큐가
제발좀
##스토리를
아름답네요
없이도
돌아간
설정을
##라이브
##사랑해요
중국이
순수함
순수하게
빠져들어
실화라
비교할
##시절의
2001년
성룡은
애들용
애들한테
좋겠음
##거같고
보았어요
전부인
각본을
높은거
어른도
어른을
ㅋㅋㅋㅋㅋㅋㅋㅋㅋㅋㅋㅋㅋㅋㅋ
소설로
어울려
어울림
##지루한
나이먹고
어쩌라는
##액션은
극장판이
화면에
tv로
댓글에
관람가
안보길
진실된
내인생의
내인생에
설명은
유머러스
부모가
120
예고편을
##별로다
짱짱짱
거기다가
제작진은
이하의
기본적으로
슬픔과
해주네요
분노를
모자이크
시원시원
10년만에
소름끼치게
자막으로
소름돋았다
채널을
등장인물들
아련하고
이때부터
정서가
올해의
시시하고
시사회에서
아픔과
##따구로
학생들
필름이
여행을
좋았을걸
슬펐어요
강력한
여러가지로
알수있다
인디언
##♥♥♥♥♥♥♥♥
배역이
잘어울리는
##역사상
시끄럽고
감안해도
바이올린
하품만
프리퀄
##어디서
로드리게
일으킨
어거지로
역량이
##귀여워
##비슷한
##아무리
못본게
마녀사냥
오리지날
##아름다
빠순이
##oooooooo
반지의제왕
벗어나지
김윤석
영화볼줄
토할뻔
지진희
레즈비언
의학드라마
못만드나
은은한
##아닐까
서세원
어렷을때
여진구
##로버츠
김창완
누구에게나
인피니트
성냥팔이
가나다라마바
막무가내
리차드
6년
95
It
NO
OT
Th
bgm
c급
for
we
가요
감안하고
갑이다
강수
갖추
같으니
같았음
거참
것보다
고사
공동
과언이
교감
교양
구린
그놈의
글래
기름
기묘한
김청
깨우
꼴보기
꾸며
끝없는
나네
나래
나았을
나한테는
남우
남동생
넣고
놀아
높여
놓치지
다있어
다있냐
답없다
당할
대로
더해
돈날
뒤집
들어요
들었던
똥망
뜨고
러닝
만으로
말처럼
망하는
맞나요
맞지않는
모리
목을
못찾
못하면
무당
무고한
미지
미남
박재
박물
반미
배고
벌레
별5
보지않
본인은
부처
비운의
세이
소속
스웨
아낌
안할
안소니
알앗
애인
엠비
연살인
열어
올인
올리기
용감
울려
울림
울린다
울트라
웅장한
워싱턴
웨슬리
위기
유진
유기
유재
유준
윤진
의지가
이진
이랑
이대로
이보단
일도
일점
입이
자가
자폐
자리를
잘짜
잘하시고
잼이
잼게
잼남
저버리지
정선
정점을
정준호
제인
제길
조악
존트라
종말
주인
주요
죽지
죽임
줬어
직원
짐작
집합
짓을
짓거리
찍으면
찍어서
차갑
책읽
촌스럽다
케미
킬빌
타는
터지
토마스
팬들
페로
풍기는
하더라
한니발
할수있는
허우
형성
화이트
확신
회복
##다녀
##이러
##이루
##이어서
##이너무
##인이다
##인건지
##주냐
##진리
##좋았던
##화에
##네트
##였다는
##만남
##관념
##의도
##10분
##해줬다
##할머니
##대소
##하심
##하구요
##하도록
##리냐
##치에
##겠니
##미드
##거가
##들처럼
##어진다
##예뻐
##드릴
##분투
##분열
##히지
##오피스
##보인
##보여서
##왜케
##유쾌
##던게
##민족
##0점
##터클
##눈에
##안나옴
##그나마
##된게
##운다
##올려
##세한
##세를
##세끼
##울었다
##되니
##되야
##되었던
##점수를
##일텐데
##즈업
##질하는
##조선
##모의
##모어
##모로우
##바퀴
##결과
##님과
##슬프고
##전부
##잼있게
##국을
##져라
##단의
##투표
##통이
##됐음
##피디
##불패
##회사
##44
##체류
##출신
##랄라
##량이
##렁한
##칠이
##딱지
##났네
##맥스
##씁니다
##옛날
##돼서
##잔잔
##뭉클
영화보
영화군요
영화사에
##영화야
##영화인지
너무잘
재미에
##으로부터
재밌더라
최고야
생각없는
생각되는
생각하면서
##보다더
사람에겐
사람으로써
재미없어도
보는건지
기대되네요
액션씬은
있는건
하나씩
지금에
한국영화를
하는짓
나오니까
나오겠지
최악이네요
이렇게나
별로라고
별로였는데
##되는지
여자랑
만든거지
##연기짱
유치하지
결말로
결말의
이상형
남자인
짜증나요
눈물은
인간과
인간들의
##재미로
만들어주는
##지마요
##스러움이
이제훈
수준으로
##재밌었는데
##재밌었음
##재밌었어요
추천하는
아주그냥
코미디와
나온건
제목보고
아쉬웠던
그러는데
부족해
부족함이
정신없는
시작된다
##이네여
##소리만
부분들이
##해야한다
오늘의
봤던영화
지루한건
힘들고
당시에도
역사와
졸작을
##스토리에
진부함
함께한
킬링타임으로
예술로
예술적
주연급
있었네요
돌아와
한국영화에
한국영화중
지나면
어느하나
##한영화다
##감동적이고
잔인하다
2편에
##작품은
순수함이
나올법한
걸작을
로맨스가
전체를
다음주
한마디만
비교된다
2003
2008년
알았지
귀엽네요
두번이나
좋겠는데
맘에든다
##보고싶어요
어른들을
##평점에
그대로의
이번에도
다르지만
개그는
예상대로
좀비가
질질끄는
##을수없는
2011년
머리속에
이런영화도
중요하다
성우들
있었다는
편집을
그림도
줄거리만
흥미진진하다
죽음에
결혼을
해야할
기대하고봤는데
가볍지
알려진
아오이유
사라지는
신기하고
전작을
현재를
##따위로
나쁘다
전달하는
##영화로는
중반까지는
아프게
못보겠
사건이
이어지
생각한다면
##지못하고
나서도
제작진의
종교를
종교적인
넘어가는
호러물
슈퍼액션
##보여준
섹시하고
깊이있는
놀랍네요
나타난
희생을
연기자들이
몇번을봐도
할말없음
오랫만
몰입감도
##무섭다
타임머
바뀌는
찝찝함
최강희
어처구니없는
##떨어지고
경험이
결과가
##거라곤
카리스마가
이용한
##소설을
봤을때는
이민호
올리비아
욕망을
평점조작
테러리스트
결정적으로
기대이상으로
제외한
끔찍하다
다섯손가락
정체성을
담겨있는
어우러져
부담없이
이렇다
이렇지
중학생때
보게되었는데
불법체류
아기자기한
스토커
그로테스크
시간때우기용
초월한
김선아
방황하는
개망작
##99999999
골때리는
들여다
파이널
##3456
나뿐인가
조인성
트라우
##미니즘
유역비
배슬기
그이하도
##사부일체
1박2
교도소
김주혁
박한별
강우석
휴잭맨
류덕환
김옥빈
14년
2점은
3점이
3점대
4점은
4000원
ㅡㅜ
가질
가문의
갈망
갈리는
감격
갖는
같애
개허접
개고생
거장의
걸려
걸고
겁나게
괴기
그날
그영화
그토록
기네
긴박한
길거리
김준
김승우
꺼버린
꼭한번
끄고
나약
나라면
나탈리
남아요
남주의
내사랑
내일이
내평생
너를
넘나
네이
년이
놀랬
느려
달라서
닮아
답을
답습
대니
대장
대서
대화가
덤으로
데이트
돈에
동경
됐어요
되네
되었어요
되었으면
될지
들었어요
등을
디게
딴거
떠들
리처
마디로
마모루
말론
말하기
말기를
망했다
맞먹는
면을
몇명
모범
목사
목표
못잡
무명
무용
무능력
묵직
문소리
뭔지도
뭘본
밑바닥
바치는
백번
별론데
보스
보려면
본인의
볼일
봤건만
비로
비약
뻔해
사운
삶이란
삼천
상승
상어가
생길
서지
서바이벌
선한
세기
세뇌
속으로
수위
식당
신발
실베
싱거운
아포
아내가
안함
알지만
알면서
암시
애쓰
애쓴
야한영화
어풋
어봐서
얼음
없죠
엇갈
여인
오광
온통
요근래
운지
울다가
원한다면
이화
이서
이분
이안
이브
이네요
이나라
이라도
잃게
입체
자녀
자다가
자격이
작년에
잘하시
잡다
잡탕
장수
장군
잼써
전용
절묘한
절실히
좀만
주주
주려
주민
준수
지역
지쳐
지르고
직쏘
짓게
착하고
처리
초대박
축하
춤추
치중
치킨
케로로
크레이
클릭
키드먼
킹콩
타입
퇴마
틀에
팬이라
팬으로서
편향
포커
폭탄
하면서도
한영화의
함축
허니잼
헌신
형이
후배
##이용
##이구나
##지좀
##지리
##지모르
##지지않는
##경험
##인디
##데가
##으루
##도있고
##진한
##좋았는데
##아프고
##구멍
##가물
##가야지
##ol
##her
##태가
##소라
##소문
##한명
##테고
##귀가
##관은
##동의
##동물
##1이
##1을
##해줌
##해버린
##었으나
##디의
##자한
##자신이
##사장
##대장
##대에서
##것과
##치며
##했어야
##려한
##미지
##거도
##당함
##람쥐
##비밀
##어에
##어게
##공간
##공을
##드류
##나은
##발로
##남자가
##그지
##그대
##그때
##부들
##부에서
##우며
##올림
##겟지만
##세연
##토의
##애의
##되다니
##천히
##력의
##제라
##질뻔
##노소
##노동
##포기
##프스키
##입장에서
##조치
##조절
##카드
##모자
##줄거리
##승리
##느낄
##랐는데
##연씨
##전투
##본방
##잼잼
##잼씀
##잼있어요
##될지
##더가
##더라는
##버가
##단계
##광이
##투성이
##통쾌
##티나
##형사
##년을
##열에
##50
##200
##름이
##꼭봐야
##백만
##몸매
##목을
##빙빙
##항상
##뮤지컬
##흘러
##빵빵
##났네요
##벗고
영화라도
영화보기
영화인가요
영화한편
너무한거
재미짐
연기때문에
##하는걸
보고있습니다
##었다니
아니었는데
아니올시다
감독에
사랑이다
쓰레기라는
마지막장면은
##라고는
작품성도
액션영화가
있는거지
한국애니
하는영화
최악인
최악으로
별로였어요
연출까지
우리들
아이엠
괜찮다고
괜찮을듯
그런게
만든듯
보여지는
일본을
같은거
무슨죄
유치하다고
이상이
다른데
몰입할
보기전에
짜증을
ㅡㅡㅋ
가슴속에
##드라마도
20살
##시간동안
만들어버린
전개로
아름다워요
필요도
추천할
재밋던데
##나오는거
모두의
아주아주
연기력으로
가족에
##이지나도
모습에서
보다보니
잼있었어요
떨어져서
느껴야
##00만
자체다
미국영화
정신이상
보고싶어서
출연작
감정과
무서워요
신선했고
친구에게
강추강추
행복하다
행복합니다
안되냐
관객들을
만화같은
자신에게
어색하지
추억은
추억으로
지루한데
다큐는
힘들듯
역사가
문제다
예술이
주연을
후회안
찾아봤는데
보지마요
보지마삼
##주의의
##OOD
지나가는
여기선
중국판
미친영화
집중을
않았어요
불쌍하고
순수했던
이름은
따라올
비슷하다
비슷해서
1999
##자체는
##자체도
다음날
초딩도
감동이었습니다
있을지
##느낌의
이것밖에
귀엽게
교훈은
맘에들
거의다
영화임에도
방송에
안타깝습니다
범죄를
귀신은
3점도
대작이
무서운영화
있음을
알려지지
가능성을
미화시킨
흘러나오는
전달하려는
##짜증난다
그랬지만
러브레터
인상깊었던
OST는
##해보이는
일어나서
후속작이
상처받은
비극을
몸매가
영환지
어렸을땐
동생이랑
설레고
##무서운
시시하다
역겨워
##나왔다
##bbb
견자단이
##관계를
세월호
대부분이
문화적
##art
##재미없어요
##지금까지
깜짝깜짝
치밀어
치밀하고
로버츠
##본영화중에
풍경이
볼수있어서
담아내
의리로
볼때는
다이빙
야한장면
기준이
연극을
스티븐시걸
끝났으면
정확한
으리으리
하하하하
난잡한
30년전
공간에서
위대하다
루즈한
담담한
담백하게
마지막장면에서
형제의
키아누리브
민주화
말해준다
호흡이
된장녀
고질라
비참한
##ime
고소영
그와중에
숨어있는
냉정하게
허무맹랑한
게리올
빠짐없이
불친절
오마쥬
리암니슨
씨네21
여지껏
오다기리
대리만족
감우성
송중기
존1나
최수종
무심코
성지순례
다코타
꾸역꾸역
전두환
주구장창
존쿠삭
가나다라마바사
2기
3는
4개
48
80년
93
Best
BGM
GOOD
SBS
TO
tr
♥♥♥♥
가려
강도
같았는데
개미
개척
거칠
건가요
것같다
겉만
경고
고아
고대
곤란
관찰
광주
괴리
구식
권총
그곳
글쓰
금발
김진
김아
김우
김병
깎아내
끝가지
나인
나처럼
낚여
남았
낫네요
내친구
노란
노트
놀랬다
눈시
눈알
데려다가
되었던
따지면
땜시
또하나의
똥꼬
마돈
마인드
만나면
만났다
많았
말것
말던가
망침
머리는
명언
명배우들의
못보는
못했음
무도
무진
물결
물체가
반면
받쳐
배낀
법을
변질
병사
보낸
보삼
보셨으면
본거지
본시리즈
봣어요
분들에게
붕괴
뷰티
빌린
사자
사촌
산뜻
삼박
상을
생기는
서동
선과
송새벽
수상
수천
숭고한
스쳐
시궁
싫어요
심함
싶더니
쓰다
쓸때
쓸모
안나온
앉아서
암유발
애청
애정이
야하다
어장
없군요
없었나
에리카
엠씨
예를
오컬
올림
왕자
왕짜증
왜캐
우수
우정을
울뻔
원본
유브
윤은혜
으휴
음란
이면
이의
이쯤
일대
임성한
입에
자비에
잤음
장사
재조
저랑
전원
전하는
전해지는
정권
정녕
제격
조진
졸린
좋던데
죄없는
죽겠다
죽어가는
지인
지성
지은
직설
진다
짠하다
쪽바리
차가
차이를
창문
최상
취권
케서방
클레이
토나온다
토나올
특정
틀을
티라노
파리의
퍼시
푹빠
피의
피어스
하길
하류
하겠다
한영화
할려고
핵심
행위
허비
##라며
##니는
##지구
##지난
##지상
##맞게
##으실
##도좋고
##주변
##좋을
##아래
##아닙
##아프다
##기면서
##기때문
##성만
##마부
##같습니다
##같다는
##였죠
##였군
##였을까
##ke
##ep
##방울
##정과
##로움
##여왕
##여친
##여자의
##관의
##에의
##1끼
##해보는
##래서
##었군
##것네
##것이지
##리자
##리암
##리에서
##리우드
##걸륜
##시로
##시코
##시디어
##죽이
##했으니
##말인지
##들여서
##암튼
##어질
##어느
##어지고
##공룡
##서가
##렸다는
##na
##ive
##gh
##파일
##분명
##두개
##오와
##오를
##볼걸
##타인
##편에서
##감만
##살짜리
##안습
##안볼
##그의
##그닥
##부른
##부리는
##우울
##세의
##세에
##세번
##세트
##되지만
##레스트
##력으로
##망신
##후무
##노래도
##프의
##카타
##모독
##란드
##준비
##황후
##림의
##학대
##병이
##겁나
##본데
##행동
##8년도
##향을
##국가
##국에
##교훈
##실화
##더이다
##용을
##단이
##통해
##통으로
##됐으면
##티의
##호크
##선의
##졌어
##회에서
##반대
##평해
##먹기
##베이터
##련다
##존스
##출한
##셨는데
##십쇼
##따로
##법을
##쓰래기
##끼는
##착한
##꼬박
##익스피
##응원
##끈다
##끈한
##혹한
##댄다
##뭐니
##얘기가
##튼의
##칼립
##짧은
##핵노잼
영화사
영화이고
##영화와
정말재미있
재밌는거
재밌긴한데
##하는건데
평점1점
이런일이
생각났다
감동이었다
##하게만
지루하진
배우나
내용없고
아니란
아니였다
아니구나
아니자나
사람에
감독이다
만들자
만들던가
만들려면
사랑스러움
쓰레기라
쓰레기에
쓰레기영화는
보는지
기대하는
##지는영화
하나입니다
지금에서야
한국에선
한국전쟁
나오긴
최악이네
별로에요
모르면
이해안되는
##이나는
재밌게봤던
기억으로
##라는건
장면에선
##연기자
이상우
다른걸
##ㅋㅋㅋㅋㅋㅋㅋㅋㅋㅋㅋㅋㅋ
##드라마다
매력있다
스릴과
##나는영화
##너무나
이제까지
필요없이
억지가
수준임
##재밌습니다
##나오는데
전혀없는
공감대
공감하고
개봉한지
대사하나하나
표현의
잼있네
조금도
기분좋아
떨어졌다
막장도
아쉬울뿐
중간쯤
알바냐
봐야될
부족했던
정신없고
1편보단
시작해
##0년대에
보고싶어지는
절대보지마
감정은
그저그렇
무서웠던
모르겠는
수작을
장난으로
장난치는
시청자들
얼마전
영화였던
관객들의
자신들의
##해야하는
오늘날
생각이든다
다큐의
함께하는
킬링타임으로도
만들었니
후회가
있었을
애니메이션의
지루하다는
옛날엔
##정말잘
##레이터
중국인
뛰어나고
느낌이었다
감사해요
사람들에겐
누가봐도
로맨스는
다음엔
다음편이
단순하게
비교를
비교해서
초딩용
2009년
이미숙
알았어
알았어요
여배우도
##보기로
##수준이다
그리움
존재하지
세계가
소설도
다르고
자연스레
시청률은
멋있어서
그때가
흥행은
의도로
보여주기
보여주는데
엉망이
##영화중하나
아빠를
불륜은
감상평
전설적인
가능성
없을것
미화한
요소들이
2시간을
전작보다
노출은
만들었다고
노력을
노력하는
다운받았는데
놀라게
##줄알았음
##하겠는데
cg는
그려냈다
고민을
연예인이
적당함
올라갈
북한의
동물의
##무서움
그것뿐
광고를
연결고
느와르의
비현실적이고
한참을
편견이
경험을
겨울에
가슴아프고
똑같네
슬펐던
시즌2는
이럴거면
김민준
챙겨보는
움직이거나
주말의
동성애를
##캐릭터가
새끼들
류승완
배역을
##reat
오빠들
영화자체도
열정과
##얼굴이
다섯개
##때문인지
여자주인공이
언젠가는
난잡하고
몇년만에
자랑스럽다
로빈윌
일깨워준
9점대는
몰라요
죄송하지만
천국의
매끄럽
##으리라
선사하는
이승기
top
브라질
뭐하자는건지
그이상도
상태에서
##귀엽다
##우리나라
소소하고
##시네마
유승호
음모론
##ㅇㅇㅇㅇㅇㅇㅇㅇ
러셀크
에바그린
지저분한
##★★★★★★★★
빠르기
짜맞춘
두말할
온몸에
죽을때까지
매혹적인
한두번
드라큐
구로사와
코엔형제
매트릭스
##보비치
카타르시스
동방불패
우마서
##안타까
고현정
디지털
OCN에서
불우이웃
21세기에
boring
싱크로율
후레쉬맨
장예모
오광록
시궁창
1초
29
40년
5는
50년
80분
IM
가네
가나
가다가
갑튀
강아
같았어요
개웃김
거라
거리는
건전
결여
계기
고리타
공영
공상과
관점이
구속
구분이
굴러
그루
기생
김원
김용
깨고
꿈은
나치
낙태
네버
녹음
능청
다짐
다봤는데
대성
더블
도는
도서
돈의
돌리고
됐지
되려
되야지
되었고
됬다
들지만
들으면
딴건
때우
떄문에
레니
막막
만다
만이
만나게
말라고
말로는
말코비
맘대로
맛은
맞네
매길
매춘
멀미
멍하니
멜슨
몇달
모조
못하네요
몽골
무사
문명
뭐든지
미혼
바비
바르
박준
받지
발버
발상은
방식으로
백성
벗는
변하는
변화가
보냈
보지는
복귀
복싱
부풀
부천
분류
분들도
브랜든
블러
뻔하지
사업
삼촌
생동
샤워
성기
성시
속을
수지
스나
스카
스키
스승
스텔
스턴
시한
시기에
식겁
신나고
실소
싸이
써서
안아
않으며
알고싶다
앞부분
애도
애써
어거
어따
엘렌
여느
연민
영어로
옆에서
예지
오현
오호
오묘한
오마이
온가족이
올린
와중에
왜그랬
요한
요세
욕나오네
용기가
용감한
울했다
워쇼스키
원더
위협
유연
이장
이불
이익
이뭐
인질
인지도
입양
입에서
잘되
잠자
장점을
잼난
전편이
절때
조장
종류의
죄가
죄악
주신
죽어야
중년의
지친
지킬
지린다
진구
질린다
짱깨
찬란
천정
천천히
총기
총싸움
최정
최곤
추운
친근
크로우
토마
토요일
통일
퇴폐
특색
틀린
판에
판치는
패배
평에
표한다
하던지
한이다
한시도
할텐데
할아버지가
핵꿀잼
했냐
헬기
협박
호주
호모
환영
회를
후련
휴대
흘다
힐러리
##다들
##다나
##이영화를
##지르고
##인거지
##도없다
##도아닌
##진부
##생명
##성룡
##화의
##ock
##방학
##태의
##소드
##정돈
##만난
##만보고
##워싱턴
##스맨
##스넌
##움직
##와닿
##었기에
##자극
##자리에
##할뻔
##수리
##대본
##대충
##하에
##하노
##하더만
##음ㅋㅋ
##음에도
##치지만
##시기를
##고있는
##미야
##있구나
##있었음
##있을때
##있으니
##적을
##당께
##장과
##들게
##들에겐
##어려
##매매
##렸을
##ri
##분도
##분히
##히다
##나쁘
##오면
##오면서
##볼땐
##감성
##유루
##발음
##봣던
##개막장
##심리
##터지고
##남고
##남녀
##안본다
##그가
##그저
##브이
##부여
##우와
##우를
##되었습니다
##제의
##망생
##저의
##질만
##ㅂㅂ
##노의
##프라
##졸잼
##중근
##조심
##캐릭
##모드
##줄도
##바엔
##키드
##결국
##합니당
##님도
##종을
##연결
##전도
##전설
##싶음
##팬인데
##용으로도
##환경
##춰진
##송이
##투더
##크에
##크레
##티를
##피언
##호와
##졌을
##머리가
##벌레
##누님
##먹지
##먹음
##씨엔
##새키
##열심히
##듣는
##듣기
##6점
##훈훈
##베스
##션스
##렷한
##커녕
##량한
##별이
##색히
##쩔어
##답지
##등급
##둘다
##끝이
##왔음
##업고
##VE
##뭐임
##싱어
##났지만
##ㅈㅎ
##ㄴㄴ
##깊이
##콩콩
##낼수
##뜬금
##튀는
영화니
영화ㅋ
영화엔
영화배우
영화구나
영화여서
영화시작
영화치고는
영화끝나고
##영화들
##영화라는
##영화라니
재미라도
연기며
연기너무잘
평점10점
이런식
생각좀
감동있는
보고있으면
지루했지만
드라마나
드라마였습니다
드라마였어요
배우에게
내용만
내용까지
사람에게는
만들엇
재미없더라
사랑한
쓰레기드라마
보는걸
좋아도
이거볼
작품이네요
기대했지만
좋았다고
좋았을듯
처음인듯
한국말
이게머
##같은건
##적이어서
이렇게도
여자배우
장면으로
만든거냐
아까웠음
볼만하네
반전이라고
##하기위해
##드라마의
매력적으로
매력적임
인생과
솔직하고
많은듯
이제라도
수준에
재밋엇
여운은
가족들이
가족영화로
개봉하고
##장면에
##리가라
나온지
표현할수
그렇네요
어디갔
막장이다
알바는
봐야겠어요
나왔어요
웃기게
왜이제
보고싶지
뻔한내용
세상엔
살아가고
나와요
수작이라고
친구들과
장난아니다
행복했다
사실이다
사실적이고
##고싶어서
##이야말로
어릴땐
##한거같다
진정성
코믹요소
주연들의
찾아보니
오래간만에
##주의가
주제의식
궁금함
미친놈
대체적으로
걸작이
사람들만
CG에
비교적
발연기는
2004
애들영화
좋겠네
##거같네
##할때마다
멜로물
다르지
나이거
낮은듯
예쁘네요
흥행실패
화면만
즐거웠던
못하는게
##하니깐
순간의
원래는
어려움
훈훈해지는
자극적이
선택이
안타까워
망작이다
과거와
영웅이
만점짜리
멍청이
멍청하고
안나지만
##하긴하지만
로맨틱코메디
##만이쁨
##그래요
설명도
동화책
우울증
만들었다는
경찰은
부모의
아프네요
풀어내는
누군가를
어렵지만
그랬어
어린이들이
하루에
느낀건
연애의
싸이코패
상처가
보러갔는데
섹시하다
무지하게
난해하고
고생한
등장인물들의
나타나
불쾌하고
전투씬
설레임
연기자들도
상상력에
떠나지
새벽의
드러난
##꿀잼꿀잼
무시무시
신경을
견자단의
우주전쟁
스스로를
##의미로
전반적인
국내에서
에피소드가
복잡하고
제이미
갈등과
묘사한
우정과
##영화라지만
바꿔서
망쳐놓은
영혼의
늘어지고
커플이
스크린에서
풍경과
깨달음을
이해안됨
영화제작
연기잘하는
##답답하고
단편영화
집착하는
크리스마스에
흥미로웠다
개념이
444
##짱짱맨
기대했었는데
바이블
바이러스
##ess
##ith
유발하는
호기심에
리얼리티가
관련된
밀려온다
영화이긴
빠른전개
키스신
벗어난
선정적인
개똥철학
유행어
죄송합니다
짜릿한
장난치나
10번도
불과하다
스펙터클
##귀엽고
거듭할수록
조지클
보고난후
박시후
2014년에
상큼한
처절하게
기승전결
자리에서
우롱하는
시사하는
쓰나미
우아한
추구하는
##봤을땐
태권도
모호한
별1개
우스꽝
어지간하면
치명적인
눈부신
공산당
철저한
어줍잖은
지니어스
진솔한
정유미
##아자차
단언컨데
##디에이터
기막힌
우베볼
방어율
가물가물
리부트
긴급조치
지날수록
솔찍히
스웨덴
존트라볼타
리처드
##본방사수
공상과학
2점을
2배속으로
3점은
4는
4명
4류
9점을
REC
VO
as
are
im
ok
wor
what
ㅠㅠㅠㅠㅠㅠㅠㅠㅠ
가지가
간에
개노답
게이는
견줄
경쾌
계신
계몽
고요
고르
고추
공정
과제
과하다
교통
구해
굿입니다
권하고
그리는
그시대
극적
기부
기업
까지는
꼬박
꽃미남
끊기는
나갔
낚일
난장
남길
남북
남주는
남아서
남았던
내보
내린
놀고
높을
다카
다닐
담주
당할수
당당히
대상
대명
대답
대상이
대만족
더티
되다
되었네요
된거
두마리
드팔
드려요
등의
때매
때묻
떠나고
뜻을
레벨
루시
마인
마더
마침
마스크
만점이
많을
많았고
맞출
맞춤
매드
머라
메카
명백한
몇OO
목욕
못만든
무적
물이
바티
바랄
밖엔
반했다
발상이
백프로
베테
변화를
별10
보상
보셨
보이나
보더라도
본건지
봤었지
비웃
비열
비꼬
비노쉬
빠진다
빠지면
빡침
사수
살아서
설리
손잡고
수능
수있는
순식
스론
스콜세
시가
시장
시망
실천
심정
심해
심야
싶지도
쓰리
아청
아른
암만
애교
약속
양심이
얘들
업그레이드
연걸
연락
였음
옆집
예나
예외
오연
오픈
올바른
왜만드는
왜자꾸
우에
울린
웃은
웃었음
웃을수
위에서
유감
유투
유선
유료
유덕
은유
음산
이집
이처럼
이들에게
있기
있기를
자화
자칭
잘하는데
재생
잼슴
저두
저를
저럴
적을
절규
제국주의
조마
조로
조은
존예
존잘
졸음
종이
주네요
주겠다
주조연
죽었
죽게
죽어라
중화
지브
지르
쩔어요
참담
챙피
초대
초한지
추악
측면에서
카우
커트
키이라
태도
터뜨
테론
토토
투쟁
파일
퍼포
페미니즘
편은
평온
포근
포인트가
표출
프라
피를
하려면
하모니
할만한
합격
해본
해주고
해석이
화나
황우
휘둘
흑형
흘렸다
히든
##다섯
##는지는
##니와
##니를
##지션
##지에서
##경씨
##인양
##인에게
##품달
##좋네
##아다
##아파
##아를
##생긴
##기게
##기며
##구마
##구들
##구성이
##성격
##가에서
##마와
##마져
##간데
##화된
##화부터
##ly
##소수
##정권
##테일이
##관심
##스탄
##1도
##해가
##길동
##었군요
##디아
##사한
##사서
##할지도
##수술
##하십니다
##것임
##치는데
##죽은
##장히
##말자
##말곤
##작렬
##게이
##서를
##예상
##렸고
##ia
##상에서
##드와
##오바
##오그라
##보아
##보기도
##곡이
##감정을
##놈에
##찾는
##안한
##안될
##안치고
##안나온다
##내리는
##없었는데
##루치
##애는
##되기
##되었는데
##레비
##풀어
##일단
##문화가
##르가
##역활
##입니당
##조마
##조합
##설수
##차를
##란도
##왕의
##왕자
##느라고
##았을까
##았더니
##온나
##슬펐
##연예
##연속
##무술
##멋짐
##멋있다
##전체
##본능
##본드라마
##행위
##행하는
##못했다
##환을
##단한
##단체
##코는
##코를
##통을
##앞으로
##크래
##크게
##크릿
##티드
##호흡
##욕이
##약간
##렇지
##잡아
##맛을
##불편
##반의
##머프
##평범
##쉬튼
##새가
##잇음
##잇어요
##탄이
##찮게
##5점
##7년에
##베일
##베스트
##싫은
##커의
##릴려고
##ㅡㅜ
##별한
##쓰나
##셔도
##갈등
##담이
##둘이
##쳐라
##양은
##삼아
##댄스
##잊혀
##way
##콘서트
##효과는
##묘사
##잭슨
##팩트
영화여
영화군
영화만드는
영화치곤
##영화지
너무심
너무재밋
너무지루
너무많이
너무재미있어요
재미나
재밌나
재밌던
재밌을거
진짜너무
진짜재미없다
##하는사람
##하는거지
이런글
스토리상
##하게도
드라마라
100년
재미있었
재미있지도
감독한테
재미없었는데
사랑하지
쓰레기야
보는중
ㅋㅋ진짜
다시보니까
좋아해
이거진짜
작품이었다
액션영화는
액션마저
없는가
없는건가
하나님의
처음이자
한국공포
10점주
별로였지만
이해하는
그래야
##이나서
이야기라
아이랑
만든게
주인공에게
보여줘
보여줘야
일본인이
현실로
남자지만
##ㅋㅋㅋㅋㅋㅋㅋㅋㅋㅋㅋㅋ
보기를
보기싫다
OO들
원작이랑
##었던영화
이제부터
아름다워서
필요해
##재밌는영화
##다니엘
실망만
재밋다고
엄청나다
코미디물
긴장의
배우들에게
대박영화
공감할수
이걸왜
대단했다
개봉전
개봉했을
##이지난
##는거보고
대사로
나온영화
표현하고
흥미도
진심이
보다말
어디다
어디가서
스릴러로
느껴지고
막장에
막장영화
##한테도
부족해서
나왔다는
나왔다면
##아니냐
작가야
시작과
시작하고
##감독과
살아온
무엇하나
무엇일까
보게됐는데
신선함이
어이없이
행복하고
영화였고
안되면
언제적
되는게
부분만
슬프지
인상이
이딴것도
힘들었음
##아깝고
들어갈
코믹과
포스터의
후회는
후회합니다
캐스팅만
설정으로
##사랑해
##사랑은
충격이다
보지마시길
어느순간
집중할
2편의
##작품을
따라하기
##것같지만
그만해라
감사하게
##수있을까
발연기의
2005
2002
알았으면
화려함
##겠지요
##등학교
두번봐라
교훈과
맘에안
맘에듬
어른들은
실제로는
ㅋㅋㅋㅋㅋㅋㅋㅋㅋㅋㅋㅋㅋㅋㅋㅋ
좋은데요
기다린
##할때는
이번에는
봐서는
방송을
그녀들의
그녀에게
낮은게
멋있네요
끝나나
불편하게
불편했다
평범하고
중요하지
중요한지
즐거움을
리얼리즘
영화보다도
만드신
돋보였다
하게하는
그림체가
홍콩영화의
한편으로
진행도
어려워
몰랐네요
시절에
여전사
참신하다
##시리즈의
얘기하는
대한민국에서
죽음은
죽음으로
자꾸만
전설이다
바람이
ost는
가능성이
되어가는
설명할
##친구가
요소도
바라본
동화를
흘러가
서로의
관계에
풀어내
해피앤딩
15년전
누군가는
애들이랑
자유로운
그랬냐
##처음이다
##해주면
미래는
황당하고
예전엔
예전부터
안나오네
5점짜리
맞는듯
스트립
산만함
비극적
힐링되는
##인간의
이연걸이
폭력을
##으로서의
소장가치
포기하고
정서를
그것만
##버렸네요
스크림
드러내는
비주얼도
비주얼은
돈아까워서
##ㅉㅉㅉ
이해할수가
10분만에
##만점에
##버리면
고통과
생생히
13일의
영국식
찝찝하고
남겨진
본영화중에
허세만
7점대는
특이하고
##왜이래
##왜이렇게
스크린에
착한척
신비롭고
이해안가는
보여줬던
남자주인공이
떠올랐다
비밀을
야구를
##생활을
작위적
두번째로
열받아
부실하고
돌아가신
배경음악도
감각적인
언젠간
잠시나마
감안하면
케릭터가
책임감
호기심을
##OOO기
정상적인
무너지는
여친이랑
나무랄
허허허
어리버리
흔들리는
거품이
영화평론가
부자연스러운
송강호의
섬뜩한
파워레인져
모아놓고
##질질끌
##dddd
고양이를
반응이
어수선하고
클로즈업
##여주만이쁨
강요하는
초월하는
노골적인
노골적으로
##긴장감
변호사
어떡해
도입부
순진한
극한의
기념비
평점왜이래
꼬맹이
치열한
어마어마한
##감사합니다
파란만
문근영
삼국지
전무후무
간절히
가슴찡한
공각기동대
디비디
색다르고
이문식
금성무
오리엔
브리짓
쌍벽을
학예회
비로소
아포칼립
##제라블
조진웅
러셀크로우
스나입
시한부
퍼포먼
0개
2배
2등
2D
3가
33
50년대
D급
XX
al
an
kn
sp
ㅇㅋ
가지는
감회가
갔으면
같던데
같잖은
개는
건물
걸리
경각
경상도
고군
고아라
고릴라
공상
공익
과분
구도
굿닥터
권장
그랫
그마저도
급이
기교
기립
길어
길지만
김일
김고은
깊고
깔려
꼬집
끊기고
끝이다
나로
나아가
나한텐
낮다니
내나이
냉소
네요
노숙
놀라는
눈꼽
늘려
다해
다봄
단점이
단점은
단막극
당대
대의
댄서
동아리
되지만
될거
뒤에서
드류
때리
뛰는
뜻밖의
라니
레미
린제
링컨
마징
말리
맘마
맞는지
매국
매료
매너
매염
머여
머피
멋대로
메디
명탐정
몇년전
목이
못믿
못했고
못봤지만
무력
무법
묻힌
물음
미나
믿음이
바란
박희
박근
반가운
받았던
받았을
발정
발달
발랄한
백설
버디
버리지
버린다
범작
베꼈
변하지
보이게
본좌
볼것도
볼시간에
봅시다
봐선
부르고
브루
비장
빈틈
빙의
뿌리
산업
살면
살다가
살리는
생겼다
생긴다
섞인
송일
스님
스카이
시초
시티
신소
실상을
심플
아유
악을
안드는
안봤음
안봅니다
안그래도
안중근
않나요
않을듯
않으면서
알고싶
알겠네
양념
얘기는
어게
없을때
없었어요
에잇
에밀리
여백
연개
연설
연평해
영하
영감을
오시
와이
왜만든
왜일까
요거
욕구
우유
울다
웃지요
워스트
원한
이니
이럼
이창
이프로
인기를
인시디어
일진
일류
읽을
있군요
자다
자의
자서
작고
잘해요
잡혀
장점이
재림
잼께
잼없는
잼나는
저에겐
전주
전광
절묘하게
젊음
정교
정복
제멋대로
제점수는
조종
조형
졸리다
좋구요
좋겟다
주게
주걸륜
줄수가
중3
즐기고
지향
찾다가
찾을수
책임을
첨보네
초보
초심을
초저예산
최루
출품
취해
친척
카페
커다
코너
콩가루
쾌락
탈북
터진다
테일러
토비
톰과
톰하디
투모로우
튀어나
파이트
판을
판빙빙
팔아
패틴
패륜
평타
포레스트
하려
하더라도
한창
했어도
헤이
현주
혈압
회자
훨신
흐한
흔들어
흘리게
흡혈
##다는데
##이드라마
##이랄까
##니콜
##주길
##주었다
##아픔
##기간
##기어
##기물
##구석이
##성장
##성상
##화까지
##같으니
##ks
##ect
##ho
##방이
##방영
##재림
##정부
##정적인
##한걸
##난감
##러가
##와도
##1편
##자매
##자살
##자본
##자룡
##사투
##수님
##대대
##대중
##리야
##리뷰
##현재
##했죠
##했다는게
##했으며
##겠으나
##고의
##고어
##말라
##말투
##작이라고
##은채
##OST
##공연
##매력이
##게된다
##서로
##예쁜
##good
##드럽게
##두는
##두리
##두번
##히로
##오스
##타가
##보로
##보를
##보기에
##보자고
##편까지
##플레이
##번의
##심은
##살려
##살면서
##남긴다
##안가
##안고
##안남
##그럴
##브레이
##산을
##우어
##내다
##루미
##씬의
##씬과
##되다
##뿐더러
##질에
##ㅅㅅ
##포가
##넘은
##넘들
##프를
##긴지
##중에서도
##조작
##모호
##모션
##모험
##준거
##꾸로
##종교
##학적
##슬혜
##힐링
##웃기다
##날듯
##전화
##전으로
##겹고
##본적
##웠네요
##폐지
##능한
##찍어
##패닝
##단을
##잘어울
##통하는
##됐어요
##선은
##계는
##형님의
##순이
##료가
##알렌
##알았다
##위안에
##2도
##7점
##놓으면
##출동
##셨네
##녀다
##쁘고
##쓰면
##쓰렉
##착오
##흥행
##쳐진
##왔고
##넣기
##석천
##PD
##채로
##ㄴㅇ
##꿈을
##덴티
영화학
영화광
영화들의
영화같음
영화속의
재밌을듯
재밌었을
진짜재밌어요
최고였던
이런지
##이다니
##들이고
지루하
배우인데
아니어도
아니였음
아니었나
사람한테
사람들과
사람사는
##면서요
만들지마라
사랑스럽
쓰레기인
쓰레기중에
좋아했
좋아용
좋아할듯
좋은지
좋은게
마지막장면이
기대되요
하나만으로
지금이라도
지금와서
한국에도
나오던
나오던데
##같은게
##적이면서도
10점이지
아깝단
명작영화
명작중에
명작이라는
느낌입니다
느낌이네요
이야기지만
##했다니
기억나
기억상실
아이에게
만든건
만든다는
만든건가
주인공들은
주인공들도
볼만하지만
이상해요
몰입하고
소재인데
남자배우가
짜증났다
가슴뭉클
OO이
눈물만
눈물나
매력의
스릴을
##니까요
음악으로
영상만
##시간낭비
만들어야지
많은지
많은생각을
##보는줄
이제와서
##지않아서
필요함
하고는
실망이네요
재밋엇음
전혀없고
공감하기
공감되지
재미있게봤어요
##만들기
제목이랑
##주인공의
아쉽게
막장스토리
자체에
알바들아
정신상태
정신분열
1편부터
나왔다고
작가와
훌륭하지만
##이상의
살아라
영화로서는
그저그랬
보게됨
느끼며
##더니만
무서웠는데
괜찮은듯
##소리를
영화였지만
관객수
관객들은
답답했다
시나리오의
허접하게
배경에
엔딩에서
다큐영화
힘들때
힘들었던
지루함은
아무리봐도
스타의
졸작으로
아름답습니다
유쾌함
진정성이
못한다는
공포영화라고
만들었어
주제의
궁금증
중국산
잔인하지만
후반의
상상이
##하시네
##놓고는
따라가지
않는다면
전체적
CG와
비교해도
비디오테
있을뿐
여배우들의
마이크
잘봤네요
##수준을
각본도
##erf
존재감
소설은
##할때가
자연과
개그도
예상을
어쩌다가
시청률을
여주도
극장판을
머리카
재미없는영화
평범하지
화면과
누구야
안타깝네
생각해보니
살인범
전형적
감성의
감성과
식상함
어쩔수없는
훈훈하게
몰랐네
안타까웠다
아빠는
아빠랑
얘기하고
감상하는
##하긴한데
##여자는
영화인것같다
로맨틱한
목소리를
환상적이다
마무리는
신기함
영원하라
흘러간다
싫어하는데
청춘들의
중반까지
##음악이
##짜증남
못보겠네요
제작비를
그랬음
미래에서
##명작이다
심심하다
남아있다
젊은이들의
속편을
화가나서
##세계를
고민하게
##재밌게봤는데
##시켜서
특별히
블랙코메디
사기극
부끄러워
그지없는
올라가
올라갈때
북한이
동물농
아련하다
##안되네
여기서도
불쾌하다
보시라
전투기
설레게
##버렸어
부터가
통쾌하고
##나이더
일반인이
싶어졌다
##나왔음
##이니깐
##관계가
대표적
명품드라마
코난은
안돼는
##만드냐
아역배우
갈등을
빠져들었다
이정진
##도안되고
조합이
ㄷㄷㄷㄷ
##엄마가
어지럽고
늘어진다
정의는
악마가
김수미
움직임
재미잇게
재미잇어요
봤을때도
##사이에
##사이에서
양심적으로
보자마자
##상황에
아름다움과
여러가지를
##문제를
안볼란다
안습이다
낚시질
다이아
짜임새가
한명도
제외하고
개념없는
위로를
정확하게
이소룡의
목숨걸고
재밌다는건지
별반개
##선생님이
중독성
이해할수없는
위대함을
임창정의
사무엘
아파서
아파트
예수님
장동민
고뇌와
망가진
##어디가
매끄럽게
불안한
아니었다면
장난치냐
한순간에
아이디어는
##ㅋㅋㅋㅋㅋㅋㅋㅋㅋㅋㅋㅋㅋㅋㅋㅋㅋㅋㅋㅋㅋㅋㅋㅋㅋㅋㅋㅋㅋㅋㅋㅋㅋㅋㅋㅋㅋㅋㅋㅋㅋㅋㅋㅋㅋㅋㅋㅋㅋㅋㅋㅋㅋㅋㅋㅋㅋㅋㅋㅋㅋㅋㅋㅋ
메이저
질리지않는
가족애를
별한개
그럴듯하게
아기자기하고
안보는걸
고양이가
안녕하세요
로멘스
적극추천
파고드는
감수성
박정희
재치있는
부드러운
##지르르
##주제에
일일드라마
상투적인
싸울때
아끼는
토끼를
바랬는데
난생처음
마스터피스
소리지르
간직하고
스무살
김현주
로렌스
산드라블록
상식적으로
##ife
단조로운
열린결말
잘보았습니다
##ally
돌이켜
한물간
##녀석들
끝냈어야
##킬링타임
거침없이
웬만해선
맥아담
자빠졌네
##789
소오름
무미건조
눈감고
주진모
오정세
자이언
엠비씨
아오이유우
1박2일
대서사
가나다라마바사아자차
퍼시픽
발버둥
오마이갓
천정명
순식간에
유덕화가
##여주만이쁨여주만이쁨
고군분투
1을
1순위
2류
3은
45
5월
But
Ost
mc
sn
ㅁㅈㅎ
ㅇㅅㅇ
가면서
간의
감점
같다고
같지도
개낚
개쩜
개병맛
거미
것이라고
결승전
공리
공군
관념
구구
구현
구질
굿이다
권투
귀를
그뿐
그다음
김새
꼽으라면
끝없이
나는데
나약한
날리고
남궁
낳고
내다
내생각
넘사
놈은
높길래
놓을
누워서
느릿
님들아
다수
달인
달린
답지
답없는
당위
대조
대하는
더글
더준다
도배
도달
돈많은
돈받고
돌프
되기
되고싶
될것이다
됬는데
두루
두배우
두배우의
드러운
들인
들리는
들었지만
디스
디테일이
딱이다
딸은
때리는
뜨거워
레인
레고
루카
루이스
만에
맞아요
맥주
머물
머금
모름
목사님
몬가
몸개그
못넘
못하면서
못만든다
무인도
묻고
뭐다
민호
바쁜
반을
반쪽
반대로
발킬
발가락
백퍼
번째
베댓
별생각없이
보신분들
본사람들은
볼라
볼건
부들
블레
비상
비키
비겁
비트
빛나
빨고
뻔할
뻔했다
산악
살림
살인의
상대로
색감과
생의
생물
생명의
샤이
샤크
서커스
성에
센세
소시
소모
솔로
숨을
숨쉬
슬스틱
시답
신사
신나
실수를
실상은
싫고
싫지만
싫으면
싶어도
싶으나
싶었나
쓴거
씁니다
아싸
아슬
아씨
안구
안올
안잡
안먹
안해서
안한다
안하면
안들고
알콩
암것도
애처
애기가
액티비티
야한거
양자
양들의
여균
여기는
여기가
역의
역동
예정
오씨엔
오션스
왕의
외의
외치는
우상
우물
울었네
유태
으리가
이는
이말
이색
이었다
이세상
인천
일인
일에
일대기
있던데
있구만
있던가
있으신
잊어
자국
작전
잘지
잘맞
잘해야
잡았다
잡아먹
장식
장엄
장례
쟁쟁
저냥
저스틴
적게
전미
전직
절친
정소
정수
정려
정식
정무
정이건
제타
조각
조윤
조셉
조화를
조으다
존엄
졸귀
좋을텐데
주다
주로
주어진
주려다가
죽었는데
지혜
지키는
진국
집으로
짜게
짜장면
짝짝짝
찍었
찍었냐
착하게
천박
천하
천년
천박한
천하의
청불
초중
축복
춤도
치즈
칼을
캐치
컬러
케미가
콜라
키우는
테마
토렌
통속
투자를
특촬
파도
패닝
팬으로써
팬심으로
페이
편성
폐해
풀리는
프란
피는
하신
하지도
하구만
하자면
한사람의
할매
할뿐
할수가
할정도로
해줬으면
해품달
했다가
헌터
헤어지는
헤어진
홍진
화신
후까
흐를
힘도
힘드네
##다만
##라시
##라클
##이치
##이던데
##이영화가
##이예요
##지니
##지르는
##경택
##인대
##인격
##진게
##좋지만
##좋겠어요
##아비
##아씨
##아련
##생에
##성근
##가휘
##마마
##마루
##같으면
##텐츠
##av
##ack
##방식이
##소개
##로워
##스스
##스나
##스톱
##에비
##동원
##1년도
##1년에
##해져서
##해줘야
##해줬으면
##래쉬
##었더라면
##영활
##자동
##자라는
##사바
##사능
##할땐
##리려고
##음ㅋ
##치로
##시끄
##시리
##시황
##고향
##ud
##up
##있다니
##있었고
##거슬
##거늘
##거라는
##말지
##말아먹
##은왜
##들어가
##어있는
##임ㅋㅋ
##읽어
##매는
##매일
##싸이코
##렸을때
##ne
##상처
##파에
##드려
##분으로
##분짜리
##볼게
##타기
##타의
##보드
##보기는
##보느라
##유키
##봤다는
##심과
##족이
##남친
##안감
##그로
##짓거리
##홍철
##우는데
##달려
##달고
##없나요
##없구만
##써도
##팀이
##식당
##애서
##되며
##레의
##뿐이
##망상
##질주
##질로
##포함
##르신
##르트
##찬이
##긴했는데
##역은
##캐리
##바랍니다
##았는지
##슬립
##붕괴
##랜드의
##변태
##변신
##80
##싶어
##잼있음
##국제
##받았다
##린영화
##실에
##팬이라
##버트
##낮다
##투자
##풍경
##런트
##집을
##호구
##약을
##선으로
##계가
##머가
##꺼이
##형님이
##킨스
##철이
##잇어
##련지
##셨네요
##강이
##활동
##극치
##랬는데
##셔널
##절절
##혀있는
##답고
##등의
##끝난
##왔으면
##업이
##블로
##탈리즘
##혜진
##났을
##채플린
##뛰어
영화에도
영화속에
영화감독이
##영화인가
너무좋고
재미지
재밌는지
연기자가
이런식의
이런저런
생각하지만
감동이고
보고픈
보고왔는데
##하게하는
드라마네
내용인데
내용이랑
내용인지도
10000
아니여
아니었지만
아니잖아요
사람입니다
감독들
감독판
감독들이
만들지마
사랑했던
사랑스러워
보는느낌
보는건데
작품이라니
완전감동
기대하면
액션이나
액션영화의
액션신이
##지는않
없는거야
처음인
##없는듯
하는건가
##적이네요
최악인듯
최악이었음
이렇게밖에
1점줄
별로야
이해못하는
아깝더라
명작인
명작인듯
이야기다
여자로
##지도록
##주는것도
공포에
마음이다
보여줘서
##사람이라면
이상이다
이상적인
소재나
반전으로
보기시작
매력있음
애니도
영상의
영상에
##지마셈
##지않아요
실망했어요
##나오게
배우들에
대박이네요
가족이랑
봤다만
##주고싶은
대단해요
##스트립
모습만
##생각도
떨어트
느껴집니다
그러냐
그러면서
그러려니
봐야합니다
부족하지만
정신적
나왔네
웃기지만
시작된
보고싶다면
따뜻한영화
따뜻함이
절대보지마라
##이상하고
뻔한결말
의미로
의미없이
##거리게
##할수없다
살아있네
감정선을
보게됬는데
수작인데
무섭긴
행복했던
만화도
만화의
자신만의
전쟁과
어색해
봤던거
엔딩을
영화관을
역사적인
##한거냐
문제지만
예술성
예술의
코믹으로
코믹하고
주연배우들의
주연배우의
재밌는듯
더빙으로
##라이프
##사랑이
충격적이고
지나지
여기나오는
##감동도
불쌍하게
알고보면
비슷함
감사하고
감사한다
194
로맨스물
전체가
CG로
비디오가게
##시절이
티비서
2002년
2006년
있을것
##보게되는
성룡영화
당신들은
알게됨
##재밋는데
애들만
두번다시
##나온다고
잘못을
보았음
어른은
존재의
존재를
기다릴
##재미있어
##재미있네요
이번주
하다못해
개그가
예상가능한
##하자나
방송에서
##모르겠음
낮은거
##액션의
100번
가치있는
상영하는
재미없는건
##시대가
##아이를
tv판
잘만들어
사이프리
편집은
좋은영화네요
선택을
끝내지
흥미진진함
괜히봤다
##여자를
병맛같은
3점짜리
대작을
이러니까
바람을
내인생최고의영화
유명해서
사라졌다
##기대를
나쁘지않
12년
성장하는
재밌어여
조연이
게임이
게임의
이래도
행동은
##짜증나서
못보겠음
자유와
그랬어요
아닐까요
황당무
황당하다
거기까지
취향에
철학을
젊은이
다가온
##새끼들은
종교적
5점도
예쁜데
아저씨는
아저씨의
슈퍼스타
이기적이고
소름끼치도록
역할은
보러갔
흐름도
##인간들
영환줄
등장인물이
일상적인
##ang
##안되서
해피엔딩이라
남녀노소
그립습니다
연기자분들
상상력과
디즈니의
평이한
##지않은영화
이루어진
출연진이
비주얼이
싶어하는
##나와요
능력을
무시한
무시하는
시각이
시걸이
##ade
연결도
밋밋하다
노답이다
타임용
코난이
기독교인
##떨어진다
영화들보다
박진희
결과를
결과물
기술이
유치함의
스크린터
악마의
어린시절의
아닙니까
일품이다
세련되고
##상황을
감흥도
그당시엔
아름다움에
오랜만이네
첫사랑의
감명깊은
전율을
무한도전
제외하고는
헤어지고
재능을
국가대표
시키지
##아쉽지만
김혜선
##버려라
애매모호
영화같아요
자세한
누군가에겐
1인2
장국영의
##한국영화
잊혀지지않는
외로움을
##굿굿굿굿
꼭보셈
장진영
여친이
짐캐리의
몽환적
즐길수
##아쉬워요
점수는요
고어물
##대단하다
##느끼게
담백하고
망가지는
말투가
##아빠가
##드림1개
포인트를
단체관람
알파치노의
우디런
따름이다
엘리베이터
빠지는게
시켜서
작화도
떨어뜨린다
런닝타임이
아메리카
넘쳐나는
만들어주셔서
귀찮아서
주관적인
데미무
색깔이
평론가는
##이뻐요
##쓰레기쓰레기쓰레기쓰레기
1점준것중
똑똑한
##한마디로
배워라
이경영
살아남은
알렉스
알렉산
황홀한
김소연
미키루
글로리아
돌고래
찰리채플린
불친절한
잘나가다가
진작에
아야세
후유증
빨리감기
무능한
필모그래
당당하게
톰행크스
##하트넷
통틀어
조디포스터
김규리
시네마
아시는분
박용우
아일랜드
윌스미스
배두나
손오공
장백지
빌어먹을
해운대
박스오피스
피노키오
##티네이션
문채원
별5개
윤진서
잘짜여진
어풋이
김우빈
오컬트
모조리
교통사고
대명사
아청법
조마조마
황우슬혜
기립박
레미제라블
커다란
알콩달
000
1명
36
4대
49
5가
BE
Re
St
SN
gg
li
time
ww
ㅜㅜㅜㅜ
가이
가수가
가는게
간결
감출
갔던
강성
강용석
개개
개밥
개소름
개구리
거저
거라고
거꾸로
건조
걸음
것임
것이지
것이라는
것만으로
경주
계기로
고른
고무
고든
골드
골라서
과소
구성을
그렸다
그정도로
극히
극우
글자
기초
긴말
길어서
김해
김승
김종
김준호
김효진
꼬꼬마
꿈도
나더라
나니아
난데
난도
남여
낫습니다
낭패
낮냐
낮추기
내심
내공이
노민
노르
노홍철
녹여
놀라서
놓치
누님
눈살
다본
다니다
단독
달래
달린다
답게
당했다
대견
더군
도그
동성
동시
동심으로
됐고
되돌
두배
두사람
둘을
뒤를
뒤섞
떡칠
똥이다
똥같은
러시
로다
로미
루크
류현
리모
리턴
마다가
막내
만하다
많아요
말야
망각
매기
맥락
맥그리
머임
먹여
멋졌어요
메마른
멘트
명장면이
몇십
모가
모모
못만드는
묘미
문자
문어
문성근
물에
물려
뭐이딴
미카
바는
바디
바라고
바래요
바스코
박성
반데
반은
받는다
받았습니다
밤새
방식은
배끼
범인을
변해
보질
보듬
보려는
복사
본성
본사람이
본연의
봣던
봤는
부셔
분이라면
빠지다
빨라서
빵점은
사사
살게
살리고
살았던
상기
상술
생명을
서유리
성범죄
세명
세금
소박한
손으로
수녀
수OO
습격
시에
시리
신문
싫다고
심도
심판
심쿵
써먹
썼다
쓰냐
쓰세요
아랍
아들은
아들도
악한
안개
안나고
안보다가
알지도
암흑
앙상
애뜻
앤드류
야수
약하지만
얼렁
없었을
에라
에미
에게
여겨
여섯
여성을
였는데
영감
예비
오면
올랐
왜봤지
외설
요가
요괴
용가
용기에
웃었어요
웃었습니다
워터
월화
위주로
윤리
은주
이청
이긴
이따
이곳
이OO
이어가
일지
읽는다
임상
입술
입장이
있단
있기는
있으니까
자질
잘했
잘찍
잘해주
잘했다고
잘만듬
잘나가는
잠도
장학
재즈
재대로
잼나네요
저학년
저번에
적어서
전하고
전해주는
절실
정크
제압
조안
조문
졸다
졸았음
죽겠네
중경
중심이
지울
지림
징기스
찌꺼
찍냐
찍었나
찍었는지
찡하게
차에
찬란한
책의
책으로도
천장
철철
첨봄
초짜
총각
추모
출시
출근
춤이
취미
친절한
타겟
타케
태평
터트
터널
통제
투명
튀는
파라
파탄
포토
폭소
표합니다
퓨전
플러스
피에
하울
하락
하겠지만
한판
한류
한잔
한고은
할줄
해바
햇는데
했는가
허망
현기
현상
현란한
홀리
홀딱
홍석천
화살
후하다
흘리며
희열
히트맨
힘으로
##다다
##는줄
##높지
##이번
##이쁜
##이젠
##이것도
##니오
##지오
##데드
##면에서는
##품이
##주네요
##진을
##진희
##좋다고
##아져
##생김
##기기
##가까
##마스터
##같다고
##같았음
##네ㅡㅡ
##네이버
##였어도
##을만큼
##ma
##태를
##만화를
##여신
##러진
##1발
##ㅋㅎ
##영원
##자유
##사자
##사노
##할텐데
##수사
##대원
##대통령
##하도
##리시
##치와
##치던
##치네요
##시요
##시맨
##죽겠다
##겠당
##겠단
##겠구만
##고가
##미소
##있다가
##거려
##말하는
##작으로
##어이가
##임에
##게스트
##렸으면
##드래곤
##분간
##분량
##나봐
##나봐요
##오르
##보였다
##보기가
##보지말고
##곡도
##유도
##신경
##신만
##봅시다
##봤다면
##봣네요
##심심
##살짝
##빠다
##안맞
##안은
##그녀
##짱이
##부다
##부활
##산의
##과함께
##우다
##우려
##써라
##세상에
##식상
##되나요
##점이다
##일기
##일줄
##일줄은
##질까
##노가
##찬양
##긴하다
##중은
##조직
##원으로
##카다
##카가
##야하는
##차는
##차서
##줄만
##바도
##바르
##키고
##왕이
##무원
##변화
##본건
##또봐도
##펜터
##교가
##린다고
##함이란
##능력이
##더냐
##더버그
##접한
##낮아서
##메세
##코난
##잘함
##잘하는
##크라이
##티시즘
##뻔했네
##졌다는
##불러
##3편
##반응
##꺼는
##꺼같다
##형은
##표가
##헤이
##씨리즈
##외에는
##슨과
##6년에
##괜히
##베르
##맨날
##됬음
##됬으면
##체능
##침몰
##ㅡㅠ
##쁘게
##맘대로
##뜨리는
##섹시
##쩔고
##킬러
##끝남
##끝나서
##잖어
##페이스
##SI
##멸망
##최강
##wo
##돼는
##밝혀
영화치고
영화에서도
영화일까
영화보는데
영화만의
영화들에
##영화만
너무높
너무해
너무재밌다
너무좋음
너무좋았다
너무재미있게
재밌진
재밌네여
연기하고
연기진짜
연기실력
##하는것이
최고는
평점이다
생각하나
생각외로
보고나
보고있다
지루했는데
##이라며
드라마와
배우님
10살
감독이랑
감독새끼
사랑스럽게
시간대
좋아하시면
이거보면서
내가슴
작품이라는
액션영화를
##하지못한
좋았구요
처음본
##적이게
1점주고
##적으로는
##이나와서
##이나오는
아이덴티
장면들은
만든거야
주인공에
보여주세요
무슨내용
볼만했지만
##배우님
##배우들도
이상해서
이상하네요
##하기를
원작에서
##너무좋아요
만들어놓은
전개의
전개나
##스러움을
수준인데
실망도
실망할
실망했음
추천으로
연기력만
캐릭터들은
코미디에
코미디라고
긴장도
배우들연기
대박대박
공감되고
##했던거
계속되는
개봉된
##을때가
대사의
##만들지
##만들어주
재밌다ㅋㅋㅋ
표현력
모습으로
그렇다면
잼있었는데
##생각보다
스릴러라고
떨어질
아쉬웠음
그러네요
미국을
않는게
##만한게
시작을
훌륭하게
절대보지마세요
##이상으로
의미에서
어린애들
어린나이에
감동적이였다
어이없네요
친구는
장난이냐
행복이
언제끝나
되는영화
되는구나
점수다
##해야할듯
##내용에
이딴영화를
힘들지만
아름답지만
예술적인
포스터와
애니메이션으로
찾아보는
캐스팅을
설정만
##사랑이야기
사람이면
집중하고
엉성하게
눈물이난다
나올듯
비슷비슷
실화가
실화바탕
195
프로가
##자체를
한마디가
발연기와
티비판
2007년
이미지를
알았던
있을수
##느낌은
두번보세요
여배우는
독특하다
##인생을
어른들
세계적인
기다림
기다리며
멜로도
어쩌자는
재미있는영화
질질짜
볼수있다
멋지네
멋있었어요
끝나기
중요성을
생각해본다
한심하고
##그런데
분위기나
프랑스영화는
잘만들겠다
보여주려고
댓글들
사이의
사이먼
그림자
카메오
순간을
순간부터
엉망이다
선택은
몰랐음
먹먹하게
대한민국에
결혼한
##이런영화가
##하긴했지만
후반부가
##여자랑
오글거린다
병맛영화
웃긴영화
소중히
독립영화가
복수의
저질이다
희망한다
바람둥이
전편과
앞으로가
##따위는
다행히
연출력에
중반이후
다운받은
90년대에
##막장드라마
부족한듯
뜬금없고
##보이는데
못보겠네
사건은
8점정도
가끔은
케이블로
황당해서
##지못할
##지못하는
안맞음
미소짓게
젊은시절
감탄이
하루를
군대를
##재밌게봤어요
오락성
오락물
오락영화로
사극이
##해보인다
일어나고
해주지
이건뭐지
시원찮
역할에
보러가
자막을
##최고의드라마
부끄럽게
폭력의
폭력적인
깊이를
##대가리
그렇다쳐도
남녀간의
불쾌했다
지구의
##무비의
그립고
보이려고
상상력은
홍보가
반성하게
강렬하게
선생님의
##해준영화
역겨움
받아들여
출연진에
일반적인
##이유를
몰입감은
때문이
상업적
타임슬립
아이돌이
끝난후
볼게없다
문화의
복잡하게
##작가의
갈등이
관심도
7점대라니
초등학생이
학생들이
가슴아프다
로봇이
쓰레기같은영화
미모와
조합은
똑같아
망쳐버린
좋았을것을
비판하는
늘어놓
##유치하고
포르노를
풍경도
주성치가
주성치의
##용으로는
둘이서
대해서도
보통의
올리버
욕망의
##♡♡♡♡
할리웃
인상적이네요
그당시에
이끌어가는
연기잘하고
부부가
첫사랑을
##하고자하는
결정체
결정적인
기다려지는
무한반복
스페이스
지났는데
서부영화
이드라마는
보지말것
안된다고
조카가
아내의
아내와
조니뎁의
애기들
##아쉽네요
때려부
##zzz
부모님께
6점대는
주윤발이
주윤발의
##데이즈
##오오오오
사운드트랙
잊혀지질
폐지해라
부정적인
정상인
##123
기억나는건
극단적으로
##아저씨가
이병헌의
몽환적이고
절망적인
##몰입도
버려라
줄리안
##가슴이
1980년대
실감나는
##웃기네
##뚱맞은
판타지가
##없을정도로
소화해
현실적이어서
디카프리오의
that
밑도끝도
데스티네이션
##억지로
올드보이
##하지말자
##비에르
니콜라스케
낭만적인
빠순이들
엔딩크레딧이
##주고싶은데
코스모
클로이
##추억이
공허한
심리묘사
가시지
주고싶은데
감수성이
왕가위의
간단한
경악을
덴젤워싱턴
일어나지
##하리라
무색하게
일관성
일생을
멈추지
##CGV
풀어나가는
과대평가된
구지성
밀라요
되도않는
끼워맞추기
1빠다
쥐어짜는
비롯한
속도감
조쉬하트넷
##흥미진진
미사일
철저하게
추잡한
고정관념
순정만화
대여비가
배틀로
김동완
무덤덤
스파르
믿겨지
이요원
어드벤쳐
비긴어게
##개연성
##카메라
야마카시
못난이
일방적인
메릴스트립
오죽하면
폴리스스토리
원초적
서태지
쇼생크탈출
미성년자
##끝날때까지
정경호
데스노트
샤말란
저능아
##지던트
전체관람가
쥬라기공원
분신사바
비둘기
김청기
페로페
노트북
무진장
이뭐병
##크레더블
꼬박꼬박
베테랑
발킬머
알콩달콩
www
더군다나
앙상블
조문탁
징기스칸
2분
2를
2월
34
4편은
4차원
8점을
911
CF
NG
TE
ebs
kt
with
가도
가스
가오
가야지
간혹
갈피를
감칠
강정
강소라
같았습니다
같으면서도
개를
개같이
개답답
갠찬
걸쳐
검술
고기
고준
고갈
고대로
고인이
고평가
공통
공백
과정은
괜한
구해서
구할수
국회의
그간
그랜
그들에게
금물
기운
까진
까고
나다
나라도
나로선
날개
남는거
내포
내이름
넘지
넘었는데
노아
노노
노이해
논스톱
놈의
놈놈
놓지
님들이
다스
다있나
달랐
닮아서
답이다
당혹
댄싱
더할
더운
덤덤
덩달아
도를
돈들여
돋네
돌파
돌림
돌연
돌려서
동서
동반
동굴
동떨어진
되었을
된듯
될수도
둘은
등급
따질
딱임
떼지
똑같음
뜨는
라인
라젤
랄프
레지던트
로즈
로케
마네
마셈
말한
말하는데
말하자면
맛없는
맛있게
망했어
맞냐
맞는데
맞습니다
매즈
맥이
맨오브
먹방
먹어라
명의
목격
못하
못됨
못느끼
무례
무차별
뮤비
미생
미덕
바래
바를
박기
박장
박력
반점
받게
밥을
배달
백윤
버렸네
벗은
베플
변한
변해가는
별2
별내용
별개로
병입니다
보영
보드
보잘
보입니다
보셔야
보너스
보람이
복고
복습
복원
본래
본성을
본기억이
봐온
봐왔던
봤었음
부적
부유
북괴
불태
불어
불평
브리트
빙빙
뿐더러
사채
살고싶다
삼성
생산
생전
샤이니
선명
소송
속에서도
속지마라
수잔
쉽고
스물
스머프
시급
시계
신중
실현
실질
심하네요
심한거
싸가지
쌍둥이
쓰는데
아자
아껴
안보게
안했으면
알던
알포인트
알모도
애하고
애들과
애쓰는
애쉬튼
야망
어머
어는지
얻는
없을까요
여학생
역에
역설
연발
열번
열등
열까지
염정아
영리
예언
예체능
오멘
오기로
온데
올리고
외노
외전
욕밖에
욕먹을
울먹
웃지
웃었던
원인
원나잇
웨스
위치
위노
위엄
유코
은혜
음미
응징
의무
의료
이데
이방
이산
이무
이벤
이시대
익살
인거
인증
인가요
인류의
인크레더블
입으로
있으면서
자란
자질이
작성
잘알
장모
저걸
저항
저리가라
전후
전부터
전적으로
정윤
조음
졸리고
좋앗다
죠스
주니
주름
주몽
주기가
죽이지
죽이기
줄어
중에서는
증오
지방
지만
지지부
지현우
질을
짠하네요
짱난다
쩔음
차예
차분한
참아
참된
천사의
첩혈
초창
촌스러움
총집
출생의
카이
카모
케스팅
코미
크림
크네요
타격
타령
탁재
탐정
탐험
탐크루즈
터지고
통수
투박한
티난다
파티
파이터
팔레
팬입니다
편협
표방
피튀
하자는
한스
한것
한세
한일
할때마다
해당
해냈
해변
해답
행크
허락
헬렌
혁신
현우
현대의
홍성
화만
화를
화제
환자
회장
후아
후로
후의
흐른
##다행
##다닌
##다닐
##라기엔
##라운드
##청춘
##이것
##이신
##이병
##이군요
##지다니
##인즈
##인거야
##인거같아요
##데서
##으으
##으려면
##으시면
##면으로
##면에선
##도한
##주러
##주자
##주나
##주신
##주년
##진심으로
##짜로
##짜피
##짜리가
##아가는
##아이는
##성인
##을수록
##을거다
##kd
##aut
##db
##ter
##소중
##재를
##정기
##만화가
##로니
##로트
##좀해라
##여인
##의로
##스민
##에에
##에대
##해본다
##었단
##디는
##디언
##영혼
##영상을
##사이의
##사나이
##수만
##수와
##하튼
##리플
##리그
##리코
##시시
##시각
##시하는
##시트콤
##겠소
##려놓고
##고기
##미더
##거짓
##거예요
##글고
##장도
##말의
##작인데
##어내는
##어릴때
##록을
##상상
##두가
##때려
##때나
##때리고
##히면
##나음
##나갈
##오네
##볼껄
##볼라고
##보이지
##보았습니다
##곡을
##감이다
##유럽
##발을
##발랄한
##신부
##처녀
##민주
##민씨
##터를
##터맨
##빠짐
##족을
##눈물을
##남의
##안해
##물론
##그거
##그랜
##홍련
##우나
##우먼
##내에
##겟는데
##세영
##루만
##루의
##되지않
##되었고
##되었지만
##레나
##일수
##일만에
##저래
##문득
##문화를
##넘는
##원주고
##까는
##까고
##까말까
##초월
##승천
##결을
##학을
##았지
##무리
##무너
##무조건
##전까지
##싶어서
##잼있다
##못해서
##될수
##될수록
##받는다
##용은
##져있다
##버는
##버거
##버들
##버리게
##코더
##코스트너
##풍의
##잘해
##됐네요
##티는
##피해
##호호
##숭맹
##졌다고
##cc
##형의
##먹었다
##먹는다
##론은
##새1끼
##외국
##28
##훈의
##퍼센트
##NG
##출현
##녀를
##꼭보세요
##극에
##극혐
##쓰는거
##목이
##목소리가
##절정
##담을
##담은
##끼리의
##답시고
##쳐먹
##엇지
##엇고
##엇습니다
##양을
##딸이
##뚱땅
##ㄹㅇ
##ye
##앗던
##났으면
##쪽이
##쪽에
##엿습니다
##쯤에
##웨이가
##컨셉
##검사
##굉장히
##쵝오
영화든
영화ㅋㅋㅋ
영화속에서
##영화인듯
재미지다
재밌었지만
재밌었지
##하는줄
##하는드라마
평점의
평점들
평점들이
평점너무
평점10
이런말
생각난
생각보단
스토리다
감동영화
감동이나
감동있게
보고는
지루했습니다
지루할수도
배우진
배우빨
내용들이
10초
아니구
아니였으면
사람이다
사람이나
만들거면
재미없던
사랑이라고
사랑얘기
쓰레기의
보는영화
다시보는
다시봤다
시간날
좋아좋아
좋아했어요
좋은것
좋은배우
좋은영화가
이거랑
이거슨
이거보느니
마지막화
완전실망
기대한다면
액션신도
하나요
이게영화냐
##적이었던
별로인듯
이해되지
아깝군
아깝지만
명작이고
느낌에
이야기하는
##한다니
기억하는데
괜찮았을
여자에게
##주는영화
아무생각
아닌게
유치했다
볼만했어요
현실성을
현실적이다
결말과
결말에서
다른나라
몰입할수
보기싫어
눈물짜
눈물까지
매력없는
원작으로
원작만화
인간관계
인간극장
##인지를
정도를
##시간도
##지마시길
한번보면
필요하겠
필요없습니다
억지스럽게
실망함
실망이에요
추천할만한
##나오냐
캐릭터로
공감하지
##했던영화
가족이란
##진짜로
개봉하면
개봉했으면
##스트의
##이랑은
##만들어서
표현해야
어디에서
요즘영화
잼있습니다
잼있던데
##생각함
느껴져
재미도있고
오랜만이
아쉬워서
아쉬웠어요
만드는구나
1편보고
웃기네요
웃기지도않고
##아니었다
##아니라고
않는가
않는군요
보고싶었는데
살아나는
살아가야
##ㅡㅡㅡㅡ
남는것도
보게될
모르겠어
감동적이게
감동적이지도
감동적이였어요
친구도
친구로
행복했어요
언제부터
관객과
사실과
초반부는
##고싶게
##고싶어요
전쟁영화를
추억도
배경만
배경의
영화관이
완벽하고
시대착오
들어와
들어있는
예술은
예술가의
못한영화
개연성을
찾아보고
찾아보게
돌아갈
##사랑의
여러분들
주제와
지나가
궁금하지도
중국은
중국에서
불쌍해요
상상하든
따라잡
따라가는
알고있는
감동도있고
얼굴과
프로포
훨씬더
로맨스로
로맨스와
로맨스영화
초딩영화
노잼노잼노잼
이미연
인물에
없어지고
성룡을
당신에게
알게해줬다
귀엽네
킬링타임용으론
생각보다는
##수준으로
독특하게
그리도
각본에
각본은
높은듯
어른들의
어른들도
세계의
세계에
실제로도
기다리다
몇번봐도
이영화를보고
##재미있었어요
멜로를
다르네요
자연을
자연스럽지
감독님은
어쩌란
평론가가
평론가의
프랑스의
뭐냐고
##액션을
극장판으로
머리속에서
케이온
확실하다
평범하다
누구보다
성우는
너무너무너무
꿀잼이다
의도한
감성은
감성으로
잘만들었어요
보여주면
선택의
##이냐고
##들만이
망작이
아빠의
아빠와
과거로
안보여
먹먹함
영웅주의
별루고
감상하고
비추입니다
##하는거냐
희망은
없을만큼
앞으로의
마무리도
나만의
나쁘게
다행이지
연출력은
서로에게
전달이
청춘을
리메이크가
##ㅇㅇㅇ
허술함
뜬금없다
재밌어용
예고편은
조연들이
관계자
피해를
cgv
애들이나
제작비로
4점짜리
80년대에
귀여운데
정치에
7점짜리
심리적
아는척
안나오네요
해주는거
와닿았다
제작진들
군대가
##시켜주는
3편까지
기본이
라이온
##이건뭐
용서는
##보여주고
보러갈
고전영화
무지한
미치겠네
다큐멘타
개판으로
표절작
이때는
이때가
##and
##안되게
해피엔딩을
스케일은
눈빛은
눈빛연기
포기하지
##오빠가
상상력의
표정과
홍보영화
퀄리티는
30분은
통쾌하다
나가다가
받아들
에이미
출연진들
의문이다
헐리우드식
능력이다
어머니가
존경스럽다
우주에
##하신분들
##을거라
외모지상
공부가
타임킬링
전문가평점
놀랐어요
반복해서
안돼요
민망하다
설마설마
본영화인데
8점대가
아줌마가
방법을
어지럽
어지럽다
인내심이
정의가
##영환지
김민희
남편을
악마를
안본게
##사이드
##비디오로
남자주인공의
하늘에서
전설의고향
바꾸면
40자
##상황이
짝이없는
부부의
작위적이고
사진을
감명깊고
잘어울림
##소녀의
짜임새있는
집착이
시즌1은
지났는데도
담배를
시청자들이
5분만에
국가의
사투리가
특수효과도
특수효과가
만약에
생활을
무게를
본거지만
따분하고
찾아볼수
영화같네요
누군가에게
인터넷에서
배신감
손색없는
남기는데
따위는
리얼리티를
박중훈의
후속작은
빵터졌다
극복하는
호구로
##어이없네
만화책을
기존에
나레이션이
극단적
집어치
벗어날
하시지
과대포장
적당한듯
일으키는
안어울림
명장면이다
##귀여움
최고최고최고최고
부자연스럽고
쯧쯧쯧
##초반에
던져주는
맞추자
엘리자
##볼만함
콜린퍼스
ㅋㅋㅋㅋㅋㅋㅋㅋㅋㅋㅋㅋㅋㅋㅋㅋㅋㅋㅋㅋ
브라운
##00원주고
못만들었다
민주주의
##선택을
드니로의
위트있는
연상케
흉내낸
마리옹
상태로
시간아깝고
##TV에서
발음도
방향을
브로스넌
모독이다
목적을
안겨준
오페라의
드물다
질문을
##이뻐서
##ffff
##신기신기
다큐멘터리가
지루하지않게
##0000000000000000
여기저기서
노튼의
수준이하의
가해자
멋잇다
미치는줄
지배하는
차분하게
모티브로
웃길려고
느슨한
##구구구구
믿어지지
김대희
잘표현한
기대할게요
알맹이가
크로버그
경이로운
브래드피트
가미된
이세상에
희한한
빨리감기로
되새겨
신성일
왜냐하면
믿겨지지
시끄러워서
어드벤처
작정하고
드라마틱한
##OO노잼OO노잼OO노잼OO노잼
박상민
이명박
끝내주게
애썼다
제주도
##자이너
140자
어리석은
삼각관계
새드엔딩
전파낭비
##누군지
박하선
치닫는
남상미
히스클리
blog
조한선
##해피엔딩
장화홍련
재활용
제라드
##로게로게
남우주연
##3456789
TOP
서동요
애청자
블러드
휴대폰
우에노
##설수설
오리엔탈리즘
아포칼립토
맘마미아
매염방
메디컬
백설공주
신소율
넘사벽
여균동
1인2역
##드림1개드림1개
해바라기
니콜라스케이지
돌연변
브리트니
차예련
카모메
##숭맹숭
04
2주
2점대
2년전에
3시간이
4회
7월
92
Be
Cg
So
ar
day
was
가기
가리
가지만
가려진
각종
간만
감을
강대
같긴
개구
개신
개OO
개무시
거지만
게으
겠다
경비
경향이
고조
고창
고르는
곤충
과감한
관음
광팬이
괴짜
괴상
구스
구리
구타
굿잡
극악
극도로
근디
급작
기세
기능
김범
김사랑
김정화
깜빡
깨한
껄끄
꼴에
꼽힐
끝에서
끝부분
끼고
나대
날림
남네
남겼
내공
내서
내마음
너가
너에게
넘흐
넘치게
논란
놓치고
누드
눈의
늙어서
능글
능욕
늦출
다망
다봤다
다람쥐
달리고
닮았다
답은
당해
당첨
당하기만
대가리
더도
도마
독고
돈좀
동기
돼서
됐음
되겠지
두시간이
두사람의
드럼
들여서
디자
따르
따져
떠들어
또라
뚱뚱
뜨거
뜨겁게
마당
마나
마리아
막을
만행
말해야
말하는게
망신
망칠
메르
며느
명대
몇편
모던
목적으로
몰아서
몸은
못이
못참
못합니다
못봐서
무참
묻히
뭘보고
미적
미끼
믹스
믿는다
바른
박사
박살
발라
발차
발음이
발칙한
밥도
방울
방사능
버렸
번지르르
벗겨
별두개
별다섯
보리
보아서
보이네
볼품
볼라고
봐봐
봐왔지만
봣네요
봣습니다
부도
부서
분들의
불협
불타는
블럭
비평
비밥
비스트
비우고
빙자한
빼라
뻔하게
사죄
사색
사는데
삭막
살인이
상위
상남자
상대가
서구
설치
설계
성욕
성숙한
세심한
센과
센스가
소원
소란
소위
소수의
소더버그
속지마세요
손해
수박
쉬는
시크릿
신음
신랑
실로
심취
십대
싱크
싶었지만
썼으면
아려
아웅
악령
안한
안대
않더라
알리는
앞세
애리
야하지
약함
어후
어루만
얻고
여잔
오케
오스카
올리는
와일드
왔음
왜지
왜그래
요런
욕은
욕심을
울때
울부
울었는데
웅얼
원스
원시
원탑
월요일
유딩
유효
윤발이
은지원
의사가
의심이
이토
이천
이윤
이득
이들은
이사람
이만하면
이현우
이빠이
인사
인격
일케
일까
일병
일하는
일그러
잃음
임원
재구성
잭블랙
잼없네
적인
전사
전나
전우
전까지
절묘
제기
제정신이
졸림
좋구나
주문
주무
주위에
줄도
중복
줬을
증언
지휘
지혼자
진상
진가를
짱이네요
차이는
찾기가
최성
춤출
충돌
취지는
측은
치매
카드
카지노
카펜터
케네
코폴
코끼리
크레
클루니
태민
토크
통통
투척
틀리
파는
팬들이
편지
편승
편이지만
포스를
폭동
폭망
푹빠져
플레
피아니
하희
하기에
하비에르
학대
한마
한껏
한거야
한명이
할게
할수도
해부
해양
해줌
행오버
허드
허황
현저히
형님의
형님이
호빵
홍길동
화보
화나서
후딱
후손
흔치
##청소년
##이였는데
##이아니라
##지냐
##지지만
##경우
##인증
##맞추기
##으라는
##으시길
##아지는
##요원
##구한
##가시
##화한
##을쥐
##km
##태어
##소이다
##소린지
##재로
##재의
##정이지
##만하네
##만이라도
##한드라마
##테이
##귀여운
##여성
##여동생
##희망
##의도가
##스테
##스퍼
##에비해
##동영상
##와함께
##길레
##사일
##할배
##할거면
##대상
##대왕
##대하고
##하차
##것중에
##리수
##시위
##시는게
##했니
##했군
##고래
##고루
##ue
##ur
##미인
##미에
##있나요
##거탑
##거게임
##글이
##당당
##작전
##들갑
##들리스
##어놓고
##어버리고
##공대
##매한
##게되는
##예전에
##파워
##파티
##파악
##드는데
##나가고
##오던
##오는데
##오네요
##오른다
##볼라
##보군
##보지만
##보이가
##편으로
##유희
##유혹
##놈을
##신혜
##판에서
##심하고
##터져
##안가는
##그게
##그루
##그랫
##짱임
##짓은
##홍콩
##배틀
##운전
##운영화
##내에서
##내시간
##없을때
##없을듯
##올리는
##세주
##세윤
##울때
##울까
##루는
##씬에
##애랑
##되도
##레가
##레알
##점수가
##겨우
##일지라도
##후에도
##즈음
##프만
##중입니다
##중하나
##입니
##조기
##조로
##카와
##모리
##야마
##차반
##건이
##속도
##쩌는
##결합
##학원
##았으나
##멋있고
##날라
##전엔
##겹게
##행님
##8년에
##잼나게
##범인
##완성도
##웠어
##팬이지만
##더는
##져있는
##갔네
##확실
##많으셨
##권에
##햇고
##햇나
##잘보고
##트레이
##크리스
##호를
##갑시다
##계로
##계에서
##머스
##꺼에요
##꺼번에
##찌질
##먹먹
##철한
##새퀴
##잇게
##40분
##악당
##위거
##70
##베가
##퍼의
##렷다
##츠가
##츠야
##체의
##특급
##봉이
##9년에
##셨는지
##셨나요
##렌스
##녀와
##름을
##AM
##틱한
##법이
##법도
##쓰냐
##죄로
##목숨
##뜨린
##담에
##색의
##꼬네
##친다는
##밀라
##왔네요
##업을
##몰아
##손이
##손을
##픽션
##뭐가
##월에
##롭지
##앗음
##힘을
##DB
##즐거
##BI
##빌려
##닮은
영화구만
영화만든
영화수준
영화랄까
너무높다
정말좋은
정말재밌어요
정말재미없다
진짜재밌음
연기하는거
최고가
최고네
최고였는데
최고였고
이런명작
생각됨
생각했지만
스토리고
스토리에서
감동있고
##하게되는
##하게만드는
##이라더니
드라마♥
드라마이다
드라마였는데
아니군
아니니까
재미있다는
감독만
만들면서
만들었어요
만들려는
만들수있는
사랑한다면
쓰레기고
쓰레기네요
쓰레기영화가
영화를보고
다시본
시간떼
좋아하긴
이거뭐
마지막부분
작품에서
완전재밌음
##하지못
하나두
하나부터
지금다시
처음인데
처음이에요
처음보네
한국사회
없다니
하는거지
나오미
##적이긴
1점이라도
1점드립니다
10점주고
별로였습니다
이해한
이해력이
명작에
##있는거
이야기들이
기억안
기억에서
기억되는
아이스
장면마다
그런듯
만든다고
만든걸까
##연기의
공포스럽지
마음까지
일본영화를
일본만화
무슨말을
볼만해
현실도
몰입하기
몰입감을
반전이다
##인가보다
보기좋은
가슴한
OO도
OO은
눈물과
눈물나고
애니스톤
인생도
인생이란
인간으로
##이고요
영상들
극장을
##너무좋아
만들어놨
만들어졌다
많은거
모든것
##보는듯
##지마시고
##지않네요
##지않을까
수준미달
실망했습니다
##메이트
대박이고
대박이에요
공감하는
##이지요
##스트가
재미있게봤는데
잔잔함이
##만들면
표현해서
##했는데도
내용이야
그렇듯
어디가고
기분은
##생각합니다
##생각하면
긴장감있고
긴장감있게
긴장감도없고
아쉽게도
않은듯
아쉬움을
만드는영화
제작을
그러한
알바임
미국인
정신과
정신줄
1편으로
##인듯한
나왔고
나왔지만
나왔어도
작가도
시작했다
시작할때
시작하자마자
보고싶습니다
따뜻해지고
##이상함
영화라고는
출연자들
뻔한데
##거리로
살아계
살아간다
감정들
나와야지
여운이남는
보게된다
느끼한
감동적이었고
수작이네요
주는것도
안되나요
답답함을
##고싶었다
##고싶을때
##최고입니다
##해야겠다
허접해
슬프지도
완벽에
완벽했던
시대는
힘들었지만
졸작임
유쾌한영화
들어감
들어왔는데
못한듯
코믹이
주연은
공포영화중
애니메이션이다
찾아가
찾아봐도
돌아다니
캐스팅과
기억에남
##사랑하는
옛날꺼
영화라기
안되는게
여기까지
미친다
미친듯
집중력
집중하면서
##감동적이다
불쌍하네
빠져듬
상상의
##ㅠㅠㅠㅠㅠㅠ
대체로
엉성하기
하지원의
나올때마다
비슷하고
영상미로
실화라는게
걸작은
##거지같은
감사한
감사할
##수있게
얼굴로
다음작품
##이야기는
##이야기도
##이었다니
있을지도
있을법한
없어져야
쓰레기영화다
대해선
감동적인영화
##필요없고
평가절
##거같습니다
2점도
보았으면
##한번도
##한번더
세계로
자기네
기다리
몇번씩
##재미있었다
하다하다
어울리고
자연스런
개그콘서트
예상했던
예상외로
볼만한게
##모르겠고
볼수도
##액션물
상영을
그때도
그때당시
판타지로
판타지영화
누구든
누구인지
생각해봐도
잘만들었음
댓글을
댓글보고
사이비
그림과
줄거리와
자극적이지
안타까워요
보는데도
여전한
아빠어디가
만족합니다
##시리즈가
##봐야할
과거가
안보인다
안보신분
안보신분들
##되어있는
멍청하게
영화인건
웃긴건
##코미디영화
비추합니다
소중함
천재감독
ost만
가능하다
완성도도
없을정도로
앞으로는
마무리를
##ine
나라에
느꼈고
느꼈어요
유머코드
싫어진다
아이들이랑
연출력의
중반에
노력에
인정하는
성장을
##보는데도
조연으로
관계의
행동에
##짜증나는
4점준다
대단하다는
그랬나
##처음으로
않을것
##해주지
카메라로
7점이나
속편의
알아라
하루가
고민이
느낀게
리뷰가
##시켜준
끝나고도
사극을
##해보자
기본은
라이브
라이토
짜증나는영화
흥미롭지도
소녀가
소녀를
소녀들의
##하다는걸
모자랄
소름끼칠
깔끔하다
더이상의
##할까요
부끄럽지
비극이
포장된
흐름과
개판이네
몸매만
올라가는
오버연기
현대인의
동물을
나타나서
심각하다
재난영화의
그것만으로도
올해본
국민이
국민의
국민학교
드러나
이쁜영화
의문을
가까워
##나왔는데
성인영화
##ㅉㅉㅉㅉ
쓰래기영화
##one
##ong
외모와
##무섭고
세월을
로그인해서
##ation
##으로써의
7점대가
바꿔야
미모는
박진영
어지러
할까요
봤더니만
지겨워서
##해지네
정의를
스크린을
남편의
챙겨보고
##아주아주
올리자
##기다려
보여줬으면
##괜찮고
영화제에서
떠올라서
바꾸는
ㅎㅎㅎㅎㅎㅎㅎㅎ
베드신이
짝이없다
뛰어넘은
sf영화
결정판
잘어울리고
짜임새도
부실하다
장국영이
다루고
해석을
보지말길
##관람불가
조카랑
가르침
내게는
시끄러운
정우성이
정체성
b급영화
##야할지
두려움을
추격전
##오오오
C급영화
부탁합니다
유럽영화
감동받았다
감동받았습니다
여자친구가
맞춰서
사람들에게는
반담의
박수칠때
고뇌하는
혐오스러운
하시는데
무겁고
일으키
황정음
정보석
이동진
잠들었다
객관적인
길이남을
우디알렌
브라보
인류가
먹칠한
내일은
설경구의
찬양하는
놀래키는
괜찮았으나
포몬스터
기적을
방향으로
이태임
김윤진
총체적난
버무려진
따듯해지는
이외에는
믿기지가
꺼져라
윌리엄스
종합선물
정준영
캐리비
애절하고
영화내용은
총격전
2차대전
내세운
##치않은
곱씹어
내리막
정화되는
##뿐만아니라
원작소설을
물고기
휴먼드라마
스타일리쉬한
가관이다
우습다
표현해낸
훈남이다
거창한
후유증이
불러일으키는
김동욱
에어컨
##열자열자
카타르시
선입견을
통틀어서
안목이
재기발랄
과감히
녀석들
자전거
대박나세요
간접적으로
강예원
중고딩
이틀만에
말도안되게
클라이막스
절절하게
##개인적으로
보고또보고
무표정으로
해병대
얼어죽을
홍경인
재미더럽게없다
주저없이
한채영
나래이션
유재석
허우적
넘나드는
어장관리
최곤데
인시디어스
느릿느
부들부들
센세이션
사이프리드
BEST
마다가스카
얼렁뚱땅
팔레스타
1학년
3가지
5편
5명
7광
85
97
FBI
GT
KT
Sh
great
life
♡♡
가보고
가필드
감정도
값진
강인
강풀
강하고
갖은
같았던
개차반
거리를
걸친
걸맞는
겁니까
고교
공원
공평
광대
광기를
괴상한
군데
군요
군사
권태
그에게
그중에
그들과
그대는
그뒤로
극으로
기간
김흥
김꽃
김인권
꼽는다
끄덕
끈을
끌려서
끝에는
끼리
끼치는
나영
나부
나락
나이는
나로서는
나로써는
날리는
날렸네
남에게
남을듯
남매의
낮고
내적
넘잼
넣지
노조
노린
놀러
농촌
놓치면
뇌를
눈깔
느리다
늙고
니키
니코
니들도
다한
다보
다투
다수의
단한
달랐다
당근
대항
더락
던지고
독이
돌을
돌리다가
동남아
됐습니다
되질
되기를
될만한
뒤쳐
들먹
땅에
뜻깊은
라이트
런던
리스
리버
리듬
리들리스
린치
릴리
마는
마의
막힌
만땅
많습니다
많으면
많았는데
많았으면
망하고
맞서
맞는다
맥클
맨몸
맹탕
머하나
머하자는
머저리
먹으면서
멋졌음
몇분
모음
모차
모텔
몰두
몸으로
못가
못말
못받
못봄
못하냐
못했다는
무민
무거워
문구
묻어나
뭐하고
미만
미로
미취
미숙
미디어
밀고
바꼈
박선
박혀
박예진
반한
반려
반동안
밝게
밥그
방에
배용
배웠습니다
백수
백점
백투더
번도
법이
베송
베껴
별은
별그대
병헌
보도
볼께
볼가치가
봤구요
봤다는게
봤는디
부류
부수고
분단
불릴
불량
비도
비위
비보이
빼어난
사와
사유
사후
사탕
사납
사세요
살을
살벌
삼십
상반
새키
생일
서늘
선악
설교
성과
성취
세얼
세밀
세가지
소망
소용
속았네
손현
손은
쇼를
수수
수출
수채
순전히
스리
스위
스분들
스럽다
시니
시점으로
식민
신을
신난다
실체
실체를
실소를
심하고
싶다고
싸인
쓰기
쓰라고
씨지
씩씩
아라
아즈
아멜
아들이랑
아티스트
안지
안바
안됬
안하나
안했지만
안됐다
않던
않기를
않겠습니다
알찬
알렌
알콜
앞선
애드
애착
애니다
애들을
야만
어다
어바
언플
얻었다
없으니까
여기도
여성이
역으로
연인과
열혈
엿먹
영애씨
예지원
오게
오산
오달
오후
오르는
오구리
온전히
올릴
왜그렇게
요청
용기와
우째
우덜
우주의
운이
운명의
웃었네요
워낭
원제
원영의
월광
위원
유다
유방
유학
유동근
은밀한
음울
이대
이르
이효
이하다
이보영
인것
인민
일장
일뽕
임요
있더라
있길래
잊은
잊게
자유의
자리에
잔상이
잘봄
잘하면
잘한듯
잘했다는
잘하시네요
잘나타
잘봣습니다
잤던
잤어요
잼난다
잼나네
적에
전라
전태
전현
전효
전우치
정규
정적인
제리
제프
조엘
졸리는
졸음이
좋을까
주유
주된
주입
주었던
주려는
중립
중1때
쥐게
지아
지치고
지웠다
질려
짓는
짜기
쩔었다
찌르는
찌라시
찡하다
차를
차용
찬성
찾으러
척하는
쳐박
최다니엘
추가요
충만한
치켜
치더라도
카르
칼싸움
코피
콩은
콩콩
쾌감
쿵후
키운
탑3
테이프
토모
투니버스
트럭
티격
파파
퍼레이드
페이지
포세이
품고
풍자와
피비
피트
하라
하트
하염
하구요
한경
한때는
할로
할린
함량
해가
해대
해줘야
했을때
했나요
향기가
헤헤
형사가
형식의
호랑
혼합
홍어
황인
후벼
후지고
훌룡
흐트
흘려
흘리고
흠흠
흡인
흥얼
힘과
##이민
##이럴
##이였음
##이었어
##지은
##지배
##지역
##지전
##지덕
##인터
##인것을
##인거다
##데이트
##주기가
##진정한
##좋습니다
##좋을듯
##좋겠네요
##아동
##아류
##아키
##아슬
##아녀
##아놔
##구도
##구름
##성우가
##가지가
##마치
##박사
##였던가
##을땐
##을지도
##ace
##oy
##ear
##ell
##소유
##정적
##정원
##정훈
##정했는데
##만데
##만대
##한장면
##한느낌
##의가
##러기
##움은
##에피
##에플렉
##동아리
##1보다
##해결
##해버리는
##래딧
##었나요
##디도
##ㅋㄷ
##자만
##자라고
##자나요
##사태
##할래
##할라고
##수면
##수씨
##수염
##대생
##대는거
##하내요
##하든가
##하우스
##것으로
##것일까
##리안
##리지않는
##걸요
##음식
##치는거
##죽이기
##고민
##미치
##미모
##있길래
##거만
##거려서
##적이라는
##격투
##장구
##장가
##말씀
##말밖에
##작의
##들어도
##어트
##렸나
##렸네요
##gg
##파이팅
##드헬
##분장
##두준
##오게
##볼루
##보겠다
##보지도
##보는지
##감명
##감정이
##찾아서
##개잼
##개노잼
##심의
##심하다
##살의
##남은
##안보
##안쓰
##안쓰는데
##짱이다
##짓는
##부끄
##산부
##배운
##달리
##달달
##운서
##내인생
##없죠
##올로
##겟죠
##세스
##세히
##애요
##애애
##되지도
##뿐이고
##포르노
##포인트가
##넘넘
##프는
##긴다면
##중요한
##조폭
##릭이
##야를
##바를
##키키
##결제
##종이
##무료
##될때
##국은
##국에서
##완성
##교회
##군과
##받음
##받아라
##린다는
##함ㅋ
##팬이라면
##더와
##더러워
##짐을
##환의
##버를
##갔던
##쌍웅
##많음
##낮게
##단에
##햇으면
##코스터
##코리아
##잘한
##통수를
##크닉
##티나는
##피식
##집안
##호사
##선동
##불명
##3명
##3D
##계인
##cm
##꺼라고
##년간
##년은
##떠는
##떠나서
##표절
##직원
##잇는데
##위주로
##27
##29
##끌어
##련만
##체험
##셨던
##릴뻔
##강한
##흑흑
##십점
##법칙
##극이
##극으로
##ㅏㅏ
##끼가
##쇼를
##끝나는
##ㄱㅋ
##논리
##딸을
##뭔가요
##멘트
##멘터리
##업자
##넣어
##멍청
##짝이
##SF
##앗습니다
##혐오
##ㅈㅈ
##곳을
##슈퍼
##낚시
##최초
##ㄴㅁ
##몬드
##찝찝
##총을
##염병
영화안
영화과
영화내
영화때문에
영화마다
영화이네요
영화와는
너무질질
너무하잖아
재미두
정말재미없
재밌군
재밌지는
진짜다
연기짱
연기연습
##하는듯한
##하는거야
최고급
평점왜
평점보다
평점주는
평점주기도
평점믿고
평점너무낮
생각할수
생각납니다
스토리야
스토리인데
##들이냐
보고왔어요
지루해도
지루지루
지루하던데
드라마인
드라마예요
내용이다
내용전개도
재미있지만
사람이지만
사람냄새
만들다가
만들수있
재미없는거
재미없구만
사랑한다고
##다는것을
보는것도
좋아여
좋은소재
마지막반전
내가이걸
작품들이
작품들을
기대와
기대했으나
액션배우
액션이라도
액션영화로
좋았지
있는척
있는건가
하나에
하나라고
하나라도
##다고해도
지금보기엔
한국인들
하는걸
하는것도
나오더라
나오나요
##적이야
최악이야
10점으로
10점드림
이해하게
우리동네
명작의
느낌이라
평점이너무낮
재밌게봤네요
이영화만
##되는건
장면에서는
공포다
공포스릴러
유치하네
유치해도
유치함이
볼만했고
##배우는
##사람들을
현실에선
현실적이지
이상하네
이상한영화
남자다
남자도
##하기보단
보기힘든
눈물물
매력있네요
스릴넘치고
애니에
애니중
인간으로서
##스럽지도
##재미도없고
##스러웠
##지않지만
##지않았나
아름다웠고
필요없네요
억지스럽지
하고픈
실망임
실망시키
실망스런
실망스러웠다
추천드립니다
재밋었음
재밋는영화
##나오면서
여운에
캐릭터랑
배우들연기도
##나라의
공감하며
공감대가
이걸영화라고
계속된다
대단하네
개봉이
##스트레스
나온것
잔잔해서
표현하지
##기는게
어디인가
요즘도
요즘같은
스릴러에
스릴러영화
스릴러인데
떨어지게
떨어집니다
알바의
알바를
봐야만
노래하는
정신적으로
1편만
1편이랑
나왔네요
나왔을까
나왔을때
웃기면서
시간이었습니다
시작이
훌륭하네요
훌륭했고
보고싶었던
##감독을
세상과
##할수있다
어린애들이
살아있
살아남는
영화로도
보게되어
무섭네요
무섭다는
##밖에없는
우리나라에도
우리나라에선
행복할
영화였구나
사실이지만
멋진데
답답하기만
##고싶냐
시나리오로
자신도
자신에
##해야한다는
슬프기도
슬프기도하고
1점도아까움
어색하게
추억과
엔딩의
엔딩에
완벽함
시대상을
힘들어서
제발요
진부하게
예술이라
코믹연기
포스터로
후회되는
있었네
있었기에
찾아야
찾아가서
캐스팅으로
설정의
##라이더
몰입도와
##사랑에
##사랑과
옛날영화라
충격이었다
##정말정말
한국영화중에
궁금하지
궁금하네
##만든거
후반은
빠져들고
비슷하지만
감사를
프로파
##기만하다
네이버영화
##듯한느낌
장르도
화려하게
보여주는게
이것두
##보게됨
##시키다니
당신들이
##재밋어
##보기에는
##전개와
##보고싶네요
##보고싶은데
##보고싶은영화
##어가지고
존재는
존재할
존재감이
몇번째
이번이
이번편은
다르네
구성으로
예상이
예상보다
에로티시즘
볼만한건
질질짜는
##들어가는
멋있습니다
머리도
판타지의
평범하게
화면으로
있어서는
중요한데
중요한게
너무너무너무너무
있어보이는
##아이들이
살인사건
리얼하고
한심스럽다
감성팔
아닐텐데
돋보이고
잘만들었고
보여주려
보여주네요
홍콩식
홍콩영화는
한편으로는
훈훈함
몰랐어요
안타까웠던
끝내라
끝내줌
망작을
여전하다
만족한다
지금까지본
먹먹했다
영웅의
##되어가는
대한민국을
괜히봤어
죽음과
불륜에
감상한
그래픽과
후반부의
귀신도
해야되나
웃긴게
독립영화를
독립영화도
이러고
이러케
바람의
전편보다는
이런거구나
되어버렸다
아마존
나만당
연출이며
유머는
2시간짜리
전작과
다행이
청춘영화
인정하지만
어렸을때는
90년대의
시간낭비다
##다시한번
풀어냈
##짜증나고
왠지모르게
전체적으로는
이어지지
##하겠음
자유롭게
##해주길래
미래가
카메라를
철학적이고
심리와
안나오면
영화보고나서
##ory
감탄했다
알아야지
하루카
화가나는
##세계에
##새끼들이
고민하는
한계인가
리뷰에
사극은
이기야
용서와
용서할
평생을
사기당한
소름돋게
##할까봐
뮤지컬을
흐름에
개판이고
일상생활
깊이도
11점
나타나는
지구가
디즈니가
홍보를
퀄리티를
떠나질
이루지
##마음으로
드러내
이쁜거
180
18금
역겨울
역겨웠다
싶어진다
깨닫고
단연코
청소년들이
스스로의
##의미를
##이후에
에피소드는
로그인했다
무비의
##ate
놀랐음
##ard
안돼고
##만드나
조용하고
##떨어짐
가져야
필름을
먹고살
##이스키
지겨움
살고있는
커플의
안본사람
이소연
대본을
응원하고
빌려봤는데
욕망과
##그렇다
레전드다
도전하는
##요소는
새끼들이
비밀이
수고하셨어요
감흥없는
미스터빈
아까울정도
열받네
##res
##ree
사고방식
죽이는게
자식들
시즌1부터
다를바
이드라마를
꼬마가
효과음
거짓말을
배경음악이
다운받아봤는데
케빈코스트너
제이슨스타
이소룡이
생활이
조절을
조절용
김혜수의
##배경이
내돈내놔
동양인
빵빵터
기대했다가
읽어보고
##데이먼
누군가의
거북한
난잡하다
부탁드립니다
말았으면
##버스톤
이게뭐냐
타고난
##느껴진다
영화이기도
이도저도아닌
갖다붙
원조격
트랜스
##낮은지
90분동안
과정에서
왠만해서
선사한다
창피한
##제목이
없었어도
메이킹
보는것만으로도
차승원의
타란티노의
우려먹기
숨막히게
괜찬은
연관성
##힘들다
마찬가지로
박시연
입장에선
우왕좌
그럴싸한
가시질
알바생들
기가막힌
국어책읽
수십번
##로맨틱
건강한
번역은
이중인격
미니언
솔까말
화질도
흠잡을데
어설퍼서
보기싫음
보기싫은
망설임
줄리아로버츠
부끄러운줄
비중을
짜맞추기
끊임없는
못주나
##훌륭한
조조로
별1개도
평점낮게
동심의
끼워맞춘
비정상적인
심은하
쥐어짜
이건아니잖아
어지간한
1화부터
##ㄹㄹㄹㄹ
그레이스
무기력
트라볼타
다케시
옹호하는
##OOOOOOOO
아키라
##주니어
갑작스런
총쏘고
크리쳐
기대해봅니다
김보성
단언컨대
유니크
라디오스타
정은지
개쩌는
윌스미
균형을
썩어빠진
윤제문
눈물샘을
잠안올때
장선우
청소년이
김두한
##마누라
로드리게즈
This
유준상
타임머신
트라우마
삼천포로
실베스타
이화영
키아누리브스
김아중
김병만
재조명
##아닙니다
드라큐라
공영방송
생동감
##움직이는
조지클루니
난장판
때묻지
유투브
자화상
파란만장한
know
매국노
발정난
이창동
제점수는요
흡혈귀
블레어
쟁쟁한
정려원
##자동차
미키루크
과소평가
중경삼
박장대소
온데간데
첩혈쌍웅
초창기
크림슨
하희라
미취학
2부
2에서
2년전
3도
58
56
70분
8점이상
9살
9년
94
99년
9점이상
CSI
IP
LO
LA
My
br
ex
fuck
pd
perf
un
vod
가졌
가관이
가졌던
갈구
갈질
감도
감미
감추
감춰진
강원
강함
강해서
갖추고
개유치
거는
거면
거랑
거물
거에요
거예요
거장이
겉도는
게속
겨냥
계절
고립
고흐
고다르
고개를
곱게
공식을
공공의
관우
구출
구하는
굴욕
그분
그들도
극에
기관
기울
김신
김갑
깊숙
까발
까야
깝깝
깨는
꾸는
꿈의
꿈같은
끈적
끈끈한
끊이지
나문
나원
나선
나가서
나은데
날의
날아가
남다른
내옆
너므
넘길
노랑
노인의
논할
눈엔
느림
늙었다
님의
다임
다중인
닥쳐
단단
닮았
대화를
더나
더재밌
더좋은
더스틴
덜떨어진
덤앤더
도요
도질
도중
돈들여서
돌리다
동해
됐네
될수있
두는
두사부일체
듣던
들었고
들었을
듯이
등극
따지고
딱인
딸내
딸리는
땅을
때로
땡칠이
떠날
떠드는
떠들고
똥으로
레슬리
레슬링
로리타
리가
리그
마자
마저도
만듭
많다는
많았음
말다
말안
말과
말세
말들이
말라는
말밖에는
맘을
맛도
망하지
망한다
망가지
망정이지
맞네요
맞는거
매직
맹목
머고
머랄까
멀어
멈춘
멈춰
명감독
명대사가
모로
목적은
몸소
못잊
못하지
못했는데
못하다니
못잡고
무장
무더
무죄
무의식
묵묵
문정
묻고싶다
물로
물러
뭔소리
미미
밖으로
반이
반해서
반개는
받는데
받았는데
받을수
발표
방화
배창
배껴
백발
백야
버리스트
번은
벤허
변요한
보살
보복
보도록
보더라구요
보신분
본걸
본것같다
본거라
볼영화
봐보세요
봤구만
부러워
분발
분들만
불체
불허
불리는
불신지
붙인
붙어
브레드
비리
비범
빠는
빠졌다
빡쳐
뿌려
뿌듯
사명
사악한
사형제
상류
상속
색이
색시
색안
생방송
서기
선진
설도현
섭섭
성유
성준
성관계
세주
세워
세탁
세대를
섹스를
소이
소주
속빈
송희
쇼크
수없이
수위가
수상한
순풍
쉽다
쉽지않
승질
시련
시갈
시점이
싫은데
심정을
심한듯
십분
쓰게
쓰는지
쓸대
씁시다
씨가
씨의
아하
아플
아들에게
아네트
안도
안생
안봣
안뜨
안나는
안다면
안해도
않지
않기
않다고
않으니
알린
알리기
암담
압니다
앞을
야하고
야마다
양익
얘들아
어난
어어
어르신
얼척
엄지
없기
없이는
없어야
없기를
엠버
여명
여하튼
연금
열차
엿볼
예스
오고
오웬
오네요
와인
왕가네
왜죽
왜봄
왜나온
왜평점이
외쳐
외롭고
욕도
우웨
우연이
욱일
운다
울화
울어서
웃을때
원피
유이
유루
유괴
의리가
이두
이단
이끈
이블
이영환
이시간에
이시대에
인조
일치
일들이
일들을
임무
입증
잇고
있으며
잉글
자지
잔치
잘도
잘나
잘껄
잘한거
잘봣어요
잠들어
잠오는
잼다
잼없고
잼없어요
저래
저것
저정도
저처럼
저당시
적정
적용
적벽
전수
전까지는
절벽
젊었을때
점차
정을
정책
정색
정해진
정부가
제게
제3
제인생
제자리
져버리지
조센
졸고
종편
좋앙
좋길래
주여
주드
주말이
죽도
죽도록
준건
준다는
준사람들
준비가
줄려다
쥐고
즐감
진진
진리를
질렌
징글
짧다
짱개
쩌러
차려
차량
참가
참패
참을수
채울
첫회부터
청년이
초록
최진
최상의
최시원
축축
춘향
출동
출산
충성
충동
취업
츠마부
치졸
칙칙
친다
케미도
키우
탄압
탐구
토시오
투영
트레
트라이
튼튼
패기
퍼니
편한
편파
평등
폐인
폭격
표정을
푸하하
풍요
풍광
프크
피만
하균
하더군요
하겠습니다
하셔야
한발
한마리
한꺼번에
할거면
해방
해놨
했었다
허세가
헤어나
현명한
호연
호빗
호들갑
혼돈
홍은
화산
화나고
화나게
화딱지
확장
환호
회가
효과는
후쿠
흐미
히히
힘드네요
##다니다
##라면서
##는다고
##는구나
##높게
##이드
##이던
##이에게
##이구요
##지간
##지며
##지망생
##인정
##인만
##맞다
##맞나
##품에
##도없이
##주완
##짜린
##좋았습니다
##아야지
##요리
##기시작
##구질
##구성도
##성님
##가와
##가르
##가든
##마시
##같지도
##네네
##네ㅋㅋㅋ
##였냐
##kf
##ob
##tr
##태격
##소는
##소에
##재료
##정지
##로랑
##한수
##한다는게
##여겨
##관한
##의식을
##러의
##러코스터
##1의
##199
##해줘
##해보이
##해집니다
##길로
##었었는데
##었어야
##었으니
##자라
##자야
##사탕
##사이트
##할만큼
##할께요
##수정
##수입
##대지
##대여
##하품
##하를
##하듯이
##하셔야
##하십니까
##것뿐
##것부터
##리터
##걸리
##치킨
##시던
##시탈
##시는지
##시나요
##시던가
##했단
##했겠지만
##겠군요
##미만
##미랑
##있구
##거보고
##거렸다
##적에
##적당
##적이라고
##당해
##당했다
##장으로
##작가는
##비와
##OR
##임ㅋㅋㅋ
##읽고
##매를
##게다가
##서요
##파가
##드그
##분들을
##두지
##때로
##나위
##오가
##타스틱
##보세여
##감탄
##발의
##던대
##던지고
##놈아
##놈이랑
##신에
##냈던
##찾고
##민아
##민수
##터스
##빠에
##빠들
##남자를
##안도
##안된
##안봄
##안나오는
##물과
##물이다
##그레
##된다면
##부까지
##부르고
##과정이
##급임
##급이다
##배달
##배역
##우진
##우니까
##우리가
##우연히
##내린
##내면서
##없으니
##세염
##루루
##루야
##토미
##식에
##애들도
##되던
##되긴
##되었으면
##류로
##일날
##일것이다
##제이
##저그
##저리게
##노력
##포의
##졸려
##졸업
##원숭
##원이다
##준다는
##준다고
##바래
##결한
##느데
##님께
##황당
##았냐
##슬이
##연하게
##멋지고
##날정도로
##전사
##전유
##전국
##전환
##병기
##견을
##본다고
##싶어요
##싶었다
##잼나
##교포
##갔을
##얼리
##단순
##권이
##앞으로도
##크리
##크고
##됐고
##호씨
##렵니다
##잡은
##불고
##갑다
##3번
##36
##반성
##반에
##추기는
##머지
##머의
##머리에
##벌써
##벌리고
##찌푸
##먹으면서
##킨다
##봐주
##새기
##잇어서
##탄을
##위주의
##돌고
##2때
##6년도
##언정
##맨을
##맨의
##퍼가
##체로
##커가
##놨어
##쟁이들
##쓰지
##쓰네
##참다
##절라
##섹스
##껏다
##친영화
##쓴거
##밀어
##엇어
##엇나
##압권
##복잡
##넣고
##삼총사
##썼다
##큐브
##돋네
##득이
##득한
##즐겁고
##최대의
##씁쓸
##벨이
##엿는데
##we
##웨폰
##웨이의
##왠지
##뛰는
##팍팍
영화만큼
영화봤다
영화답게
영화답다
##영화관
##영화에요
##영화인줄
너무재밌음
너무좋네요
재미남
정말재미있어요
정말좋은영화
##하고있는
재밌따
재밌더만
##하는짓
##하는거다
평점쓰
스토리구성
스토리진행
##들이는
감동만
감동임
감동스러운
감동받은
감동그자체
감동깊게
보고있음
보고왔습니다
지루할수
지루하며
지루하구
##었다가
드라마보면서
내용이고
10분이
10글자
아니게
아니었어도
감독까지
만들수가
좋은건
이거다
이거야
이거보다는
이건정말
마지막엔딩
내가좋아하는
내가만들어도
작품인
완전대박
완전재밌어요
액션이다
액션까지
액션스릴러
액션신은
있는듯한
하나이다
처음은
처음과
처음봤는데
하는듯
나오코
##적이네
##적이나
최악이라고
최악이였다
1점으로
1점줍니다
우리모두
명작도
느낌만
기억한다
아이큐
괜찮습니다
괜찮아서
여자다
여자분
장면들도
주인공처럼
##연기만
마음과
마음껏
일본과
일본꺼
아무렇
아무말도
유치할
유치합니다
유치한거
유치함에
##배우들은
##사람들도
현실성은
##없이도
다른가
다른것
남자에게
##ㅋㅋㅋㅋㅋㅋㅋㅋㅋㅋㅋㅋㅋㅋ
##ㅋㅋㅋㅋㅋㅋㅋㅋㅋㅋㅋㅋㅋㅋㅋ
짜증납니다
짜증유발
가슴은
OO들이
OO들아
OO있네
눈물의
눈물없이
##드라마에
20번
스릴넘
스릴있게
스릴도없고
스릴만점
원작자가
인생사
인간이란
인간쓰레기
인간으로써
##재미와
##재미없는영화
##는지를
만들어지는
전개방식
##스러웠고
억지다
억지스토리
하고있는
실망스럽
실망스럽고
추천추천
재밋습니다
재밋다는
##나오네요
코미디다
긴장과
이걸보느니
가족도
가족이라는
대단한영화
개봉했
개봉후
##장면과
##는거여
##만들었다
##만들다니
모습들
제목부터가
내용이해
##생각에
##생각해도
긴장감있는
나오는구나
스릴러와
##영화는처음
느껴졌던
시리즈에
막장은
그러네
그러므로
알바도
##리스의
봐야됨
봐야하나
노래에
웃기기는
않는다는
작가나
작가주의
##이란거
시작하는
시작했는데
보고싶음
##이상한
##이상해
세상에는
의미부여
##거리를
어린아이가
살아가
살아간
살아난
살아가면서
싶은게
싶은영화
신선하게
무섭기도
장난도
우리나라에서도
주는것
##소리에
안되지만
사실상
답답함과
##고싶은데
OOO들
점수도
웃음코드
자신들이
자신있게
전쟁으로
허접영화
허접해서
허접쓰레기
재미가없네요
인상을
인상에
어떤지
이딴식으로
힘들지
귀여니
귀여웠다
귀여웠음
귀여웠어요
스타트
들어오는
예술과
예술인가
코믹하게
주연들
##아까울
공포영화로
만들었고
만들었어야
후회하고
재밌는게
찾아온
돌아올
돌아왔다
##라이트
영화라기보다는
##정말로
한국영화보다
궁금해요
궁금한게
중국을
중국영화는
같이봤는데
하나도안
매우매우
2편부터
여주인공만
불쌍할
빠져든
빠져버렸다
##하시죠
영화중의
##것같다는
하지원은
193
##수있음
CG만
다음편
다음부터
비교하는
초딩들이
초딩시절
초딩수준
티비를
감동이었어요
이미지는
있을줄
##느낌을
상황들
알게해주는
알게되었다
두번은
두번보고
여배우를
사회는
사회비판
독특해서
맘에드는
뭐야이거
뭐야이게
각본의
높은게
##ers
##ere
세계에서
자기들
기다렸다
멜로로
구성의
구성에
예상한
예상은
예상가능
##하자고
어쩌나
봐서인지
에로비디오
##모르겠지만
##영화다운
##들어가서
평론가들의
##아야할
##아야한다
극장판도
극장판중
상영시간이
##였음을
그때로
중요하지만
성우도
즐거웠습니다
개연성과
잘만들었는데
식상해
댓글도
0점못
0점주고싶다
하게되는
홍콩영화가
홍콩영화를
##가고인의
관람후
한편이
한편으론
진행과
##하지도않고
어릴때부터
소리하고
안타까울뿐
미안한
미안한데
아빠도
참신한데
##시리즈중에
안보신
안보이는
먹먹함이
영웅으로
결혼에
결혼은
불륜이
불륜의
힘든영화
##여자들이
귀신을
해야할지
대작은
대작입니다
무서운게
목소리로
##사회에
그럴거면
복수하는
희망의
천재가
내인생에서
알려주고
가능합니다
스타일을
사라지지
##기대했는데
##친구들
느꼈음
유머감각
전작이
현재까지
나쁘진않
노출을
촬영한
청춘은
경찰을
인정한
인정할
인정하고
12년전
123456789
성장드라마
아프지만
이래야
15년이
4점도
자유로
그랬던
그랬는데
##hen
##별로임
외국에
카메라의
7점정도
예전에는
안맞아서
저예산영화
심심하고
알겠네요
낭비한
있었던가
##최악이다
##최악최악
다가왔다
알아봤다
손발오그라
##새끼가
어이없는영화
군대는
어이가없어서
##재밌게봤다
결론적으로
##시켜라
##시켜야
아닌데도
시도가
시도때도
연애를
용서를
용서되는
연예인들
찍은듯
찍은건지
스트리트
소녀는
레이놀
적당할듯
후속편을
##추천합니다
##남자랑
보러갔다가
채널에서
고생하셨습니다
뮤지컬로
그지없다
등장인물의
##ous
오버하는
압권이었다
표절을
슬프고도
나타낸
남녀가
남녀주인공
여기서부터
지구에
스케일만
스케일과
눈빛과
말로표현
보시기
전투씬이
형편없음
정서와
표정으로
##소재는
소재로한
반성해야
감명을
그린영화
좋을것
좋을거
씁쓸하지만
국민을
드러난다
시시껄
이쁜데
이쁜척
##마지막회
##한것만
의심된다
괴물은
본방사
마이너스가
시각에서
시각장애
우주선
##하신다면
##을거같다
##영화임에도
##배우들로
때문인지
안봤다면
공부좀
주변에서
영국의
놀랐습니다
##ark
아쉬움은
시트콤이
안돼서
##재미없었다
뭉클하고
민망해서
##연출이
007의
##지어다
지켜라
편견과
극치다
거슬리는
##지금도
##ies
미모가
미모만
미모에
박진감도
오바다
##엄마랑
어지간히
많아지는
이용철
##영환가
##유치한
교육용
대중을
아동학대
재미잇는
무리한
욕망에
평점조정
데이비
하늘나라
빈약하고
우려먹는
테러범
베드씬
오랜만인듯
받을만
받을만한
안쓰럽다
##라기보단
다이애
잘어울린다
기다려집니다
모험을
감정이입도
봐줄만한
열정에
제외하곤
50대
##시즌2
클레멘타인이
클레멘타인을
로버트드니
시끄럽
아내를
웃겼어요
시키고
감각이
무게감이
여러번봐도
수입한
터미네이터2
감안하더라도
즐겨라
볼수있는영화
해리포터는
추격씬
##ity
이수정
확인하고
우뢰매를
달콤하고
몇년간
중2때
혹시나해서
클래스
이게뭐지
잊혀지지않는다
다보고나서
끝에가서
배급사가
아놀드의
극복해
만화책으로
우연찮게
##죽는줄알았다
##ass
##asd
##ash
열연에
개그맨들
김치녀
뭐하는짓
요새는
##아쉬움
할아버지의
살인마의
##느끼는
##몰입이
무엇인가에
##ice
안어울리고
안무서워
즐기면서
실감나게
미녀와
##귀여워요
아마추어가
한가득
하기에도
잘보고있어요
질리지가
손가락에
일주일동안
이미지와
머릿속을
##하나하나가
지루하기까지
모아놓은
위트와
유치찬란한
스필버그의
##미스테
등록이
정사씬
흉내만
그로인해
시간아깝네
말아야지
본것중에
박평식이
저지르는
찾을수가
그럴싸하게
이정재의
센스있는
편의점
모르겟고
기승전결이
버무려
나아진
윌리스가
하지말자
카메론디아
2012년에
멀리서
##마무리가
엑소시즘
유사한
지워지지
##ㄷㄷㄷㄷㄷㄷㄷㄷ
김정훈
평점올리기
모자라다
더러움
맛깔나게
우스운
징그러운
장난아니게
조정석
퀴어영화
소리지르고
##tv에서
무관심
우습게
타락한
김대중
말하려는지
싶었으나
채플린의
별기대없이
요구하는
후진국
오만과
조여정
허영심
영화로서의
공존하는
박지윤
소림축구
전개되는군
해리슨포드
one
대책없는
적응이
처참한
3일만에
넘버원
태극기
##정서에
있어보이려고
부끄러울
여우주연
졸립다
프렌즈
##안타깝
좋아하더라구요
사랑스러워요
낮추자
무거울
스마트폰
로긴하게
반가웠다
CGV에서
노인네
유대인
유전자
##야야야야
김상경
대다수
참다참다
수식어가
알라딘
7번방의
무성영화
스며드는
안내상
러브라인이
##리의리의리의리의리의리의리의리의
찌푸려
##우월주의
정신세계가
3박자가
지껄이는
조미료
황진미
송윤아
인위적인
글래디에이터
놀아나는
모리꼬네
아낌없이
울려퍼
슈퍼액션에서
눈시울이
사촌동생
일대기를
로빈윌리엄
고리타분한
김원효
성시경
imdb
world
전무후무한
오시이
머리카락
구구절절
구질구질
남궁민
오씨엔에서
반데라스
비긴어게인
별2개
탁재훈
해냈어
라이온킹
엘리자베스
불협화
어바웃
티격태격
하염없이
##볼루션
우왕좌왕
불신지옥
양익준
##드그렌
2화
2학년
25년
3기
31
38
3회
39
3명의
4가
4년
4명의
51
55
6년전
7세
8년
82
8월
8년전
95년
90년도
97년도
Br
Love
all
can
cct
out
pl
wow
ㅠㅡㅠ
가정을
가정의
가이리
간직한
갈라
감초
강연
강제로
강원도
갖춰
같군요
개의
개재미없다
개재밌다
거나
거라는
거리도
건네
건방
결방
겹쳐
경기도
경우는
경우가
계승
계륜
고귀
고리
고개
고잉
고퀄
고퀄리티
골로
골랐
골빈
골고루
공기
공항
과장이
관점으로
괴로운
교묘하게
구토
구별
구하고
구태의
군국주의
그해
기만
기여
기동
기껏
기묘
기적이
기적이다
기부를
기황후
길은
김연
깊었다
깊었던
깎아
깔아
깨하고
꼬라
꾸르
꾸없는
끈다
끌다가
낙으로
낚였음
난왜
낫지만
났을
낮아요
내리고
내스탈
냉정한
냉혹한
널리
넘이
넣어주
네오
네러티브
논하지
높다고
놔두고
누르
누나가
눈동
눈앞에
눈호강
느다
느리게
다냐
다물
다되
다모
다이나
단발
단절
담임
답다
당분간
닿지
대동
대입
대전
대담
더는
더구나
데니
데니스
도끼
도자기
동거
되었음
되도록
되었네
된거지
될뻔
뒤는
뒤틀
뒤흔
드럽다
들썩
들어야
디자이너
딱이네요
땡큐
똥파리
레아
로저
루비
르노
린즈
마코
말의
말리고
말이나
말하기도
말해주고
말밖엔
맘껏
맛으로
망친다
망했네
맞물
매장
매겨
매순간
먹음
메기
메탈
명목
몇회
몇백
모은
모션
몰상식
못봤
못해요
못보게
무스
무분
무팍
무성의
무장한
문란한
물을
물량
뭐라도
뭔죄
뭘로
미라
미공
미센
미지의
미란다
민세연
밀리
밑의
바퀴
박해진
박은혜
밖에서
반지
반공
받아라
발매
발광
배설
배웠
배꼈
버리게
버틀러
벌고
벨라
별3
별것도
보태
보내요
보물을
보지도않고
보세여
보셔요
복선이
본드라마
본것이
본사람은
볼려
볼려면
봐줘야
봣음
봤더라면
부다
부질
부린
불을
불리
불문
붕가
붙잡고
브란
비싸
비견
비공감
빈곤
빛난다
빛났다
뻔해도
사만다
산다는
살았다
삶에서
삼시
삼가고인의
서비스
성당
성별
성적인
섹스로
소스
소금
소리는
손수
쇼미더
수두
숙제
순애
술먹고
숨기고
쉽지않다
스코
스킬
스나이
스미스
승승
시러
시달
시집
시킬
신도
신유
신혜
실타
실소가
싫다는
싶었어요
싸움을
싸대기
써니
써본다
썼나
쓰래
씁슬
씬을
아수
아녀
아멘
아기가
악어
안간
안찍
안톤
안웃기
안봐야지
안올때
않겠지만
알것
알듯
암으로
애완
앤더
야경
야호
약해서
양쪽
얘기만
어림
어짜피
언터
언덕
엄연히
없던데
없지않아
에구
에머리
엔젤
엘프
연제
연연
연정훈
엿보이는
였지만
영문
예수의
오스트
올립니다
옷벗
왕이
왜보고
외도
요시
요리를
욕이나
우러
우릴
울지
울렁
울었는지
울림을
웃었
웃었네
워커
원제는
위태
위의
위한영화
유식
유독
유세윤
육아
윤성
윤발
으이
음침
의구
이네
이만
이원
이송
이십
이하나
이라면
이지현
이전의
이끄는
인육
인내가
일등
일종의
읽지
읽었는데
임금
있답니다
자리가
자식이
자무시
작지만
잘가
잘좀
잘하는지
잠못
장구
장서
장땡
장점은
장가휘
재가
잼났어요
저에
적다
전에는
전하려는
절절한
젊고
젊음의
정태
정직
정혜
조이
조나
조타
조승
조크
존레
졸다가
졸리의
좋네여
좌충
주르
주절
주기는
죽으면
줄여
줄려고
줄만한
중단
중앙
중심을
지렸다
지우고
지리한
진가
진격
질색
짜다
짜여
짱잼
쩌네요
찍다니
찍었으면
착신
참는다
참으면서
천만다
천상의
천안함
첫방
첫날
초특급
총맞
총도
친한
커리어
컨텐츠
코가
코끝이
콘서
키드
키우고
타마
터진
토막
퇴색
투스
특성상
티나
티모
티아라
판사
팔마
팔아서
패고
패밀리
페르
편을
편안하고
포도
폭행
푸하하하
풀어가
품격
피닉
픽사의
하난
하였다
하지않
하시고
하지마세요
한을
한들
한치의
한반도
한군데
한단계
할짓
할꺼면
합창
합채
합니까
합쳐서
해은
해체
했으니
허수
허점
헛된
헤드
혀를
호랑이
혹해서
화합
화내고
활력
후지
후보
후광
훨배
휴우
휴그랜
흐하게
흘린
힘은
힘내요
##다름
##이길
##이었어요
##지아
##지연
##지기를
##인진
##인냥
##인들을
##데레
##품을
##도우
##도에서
##주리
##주게
##주셔서
##짜임
##짜집
##좋구
##좋겟다
##아랑
##아주세요
##기본
##기에서
##기만한
##기만한데
##성향
##가치도
##마땅
##마녀
##마법
##마세요
##네ㅋ
##박스에서
##low
##se
##ms
##mbc
##b급
##방지
##만지
##만치
##로다
##로나
##로부터
##한태
##한회
##한개도
##테니까
##워크
##희도
##희랑
##의영화
##스다
##스파이
##스프레
##러디
##1번
##1000
##길에
##었니
##골이
##사마
##사납
##할만
##할꺼
##수없
##대1
##대회
##하당
##하오
##하였습니다
##것두
##값을
##치나
##시피
##죽일
##현씨
##현오빠
##했었지
##고와
##고수
##고고
##미쳤
##있노
##있긴
##있더라
##있어도
##거랑
##당신
##당초
##당기는
##말만
##말하고
##말해서
##작인
##작이다
##은정
##비주얼
##들다
##들하고
##어우
##어든
##어찌
##어놓
##어버리는
##공에
##공은
##게된
##서니
##록즈
##파하
##파탈
##드려야
##두각
##때리는
##보의
##보리
##보낸
##보았는데
##보시면
##감있는
##밖으로
##처리가
##찾다가
##판도
##개토
##심사
##심장
##심리를
##살고
##터는
##터진
##빠엔
##눈으로
##남매
##안본
##안하는
##안했는데
##그걸
##짱나
##짱이에요
##부실
##부작이
##산업
##과학
##과이어
##우도
##달라서
##내야
##틀리
##겟고
##겟습니다
##세르
##울었어요
##루와
##애도
##애미
##레마
##레븐
##류에
##류영화
##일한
##일것
##일이다
##일줄이야
##저가
##질듯
##ㅂㄷ
##노예
##노우
##프랑
##프에서
##긴함
##조는
##조용
##설정은
##릭스
##모냐
##모름
##야돼
##야할듯
##초에
##건지도
##건아니
##속에서도
##줄려고
##준건
##준사람들
##먼트
##연주
##연령
##붙은
##웃었다
##웃으면서
##멋져
##전용
##규모
##변화가
##본후
##본건지
##잼없음
##삶에
##못하네
##군인
##웠으나
##받네
##받았던
##린이
##린가
##실험
##용의
##져가는
##낮아
##패가
##단지
##메시
##햇는지
##돈을
##코어
##풍이
##트만
##됐던
##런의
##졌는지
##놀래
##불을
##맡은
##순없다
##순없지
##순수한
##표정이
##먹어라
##씨랑
##직업
##룡이
##새로운
##깨달
##위대
##2회
##20년
##징어
##름한
##강력
##따듯
##AR
##AT
##참패
##빛나
##끼들
##쳤는데
##쳤지만
##꼬맹
##덕후
##충이
##밀려
##양심
##양아치
##춤을
##멘토
##젤과
##허다
##허세
##몰이
##몰랐다
##손에
##흐르
##힘이
##CC
##즐겁게
##엿던
##엉엉
##옛날에
##B급
##잃은
##셀러
##앉아
##젠장
##흔한
영화적인
영화에게
영화정말
영화들과
영화같은데
영화이자
영화보러
##영화란
##영화보고
##영화보면서
너무한
재미의
재미씀
재미지게
##지만은
진짜루
진짜ㅋㅋ
연기만으로도
연기또한
연기못하는
##하는군
최고에
최고였어
평점남
평점내
평점이나
평점높은
평점등록
이런느낌
##하다보면
##하다못해
생각했었는데
##이라면서
드라마랑
드라마같은
내용임
내용자체가
101010
아니면서
아니라도
재미있겠다
재미있을듯
사람보다
사람만이
감독이라고
만들지를
사랑해서
쓰레기중
보는거지
보는거다
보는순간
다시볼수
시간끌
시간대가
좋아한
좋아하네
##보고있는
##보고있다
이거나
작품임
작품인듯
작품이지만
기대이
기대만
기대치
기대해서
기대하겠습니다
없는건
좋았다는
있는법
있는거다
##다고는
처음봤다
한국도
한국공포영화
이게영화
하는거다
##적이면서
최악중에
1점만
1점대
10점임
10점드립니다
별로입니다
별로라는
모르면서
이해하는데
명작이네
##있는척
이야기만
##했다만
재밌게보고
기억만
기억의
아이콘
여자만
여자라면
장면까지
장면부터
장면들을
장면장면이
그런건지
그런건가
주인공만
아까비
공포물을
일본영화중
아무거나
같은영화
무슨일이
유치함과
볼만하나
##사람으로
결말보고
##가는거
이상하지
##하나만
##하나도안
다른분들
남자로
##하기전에
짜증난
눈물이나
매력으로
매력있어요
스릴있는
말이되냐
애니라고
인생최고의
인간도
인간미
인간에게
##재미업
정도입니다
극장용
만들어놨네
만들어졌으면
##보는편인데
##스러워요
한번보세요
아름다울
필요하
억지눈물
수준높은
##재밌네
하고싶다
추천은
재밋엇는데
##중에도
여운남는
캐릭터들과
코미디인데
코미디인지
긴장하게
긴장하면서
좋다만
대박인
대박이네
##했던게
가족에게
가족간의
개봉안
개봉날
개봉해서
##을때의
##이지의
대사만
##스트를
재미있게봤습니다
재밌다ㅋㅋ
표현도
모습들이
제목때문에
흥미있게
요즘의
요즘들어
##생각했는데
##생각난다
스릴러라
떨어지지
느껴졌
않은게
시리즈도
재미도없다
##한테서
아쉬웠습니다
제작사
제작사가
그러는지
자체로도
알바다
알바야
알바인가
봐야겠네요
부족하군
노래로
노래부르는
미국인이
나왔지
웃기기라도
##아니구
어설펐
않는구나
이유만으로
작가들이
시작으로
훌륭했던
훌륭했습니다
따뜻함
##이상을
출연했다는
의미와
의미없다
어린신부
살아있고
감정들이
보게되었다
무서웠지만
신선하네요
신선했음
감동적이야
감동적이면서
감동적이었던
감동적이기도
수작인
무섭진
무섭지만
무섭지가
장난질
장난아니고
장난아님
장난하는것도
얼마든지
##소리도
영화였네
영화였어
안되니
되는듯
관객에
관객수가
관객과의
만화와
##고싶네요
웃음의
웃음밖에
웃음짓게
##내용으로
슬프면서도
오늘이
오늘따라
어색하지만
지루한영화
엔딩으로
시대와
시대상
힘들었
지루함만
##한데다가
어릴떄
스타쉽
##한거죠
졸작은
문제지
아름답지
진부하지만
진부함을
##아깝네요
들어온
들어갔
예술도
포스터부터
주연인
##아까웠다
공포영화다
공포영화보다
공포영화인데
후회한
후회하는
후회하게
후회안함
있었는지
오래남는
돌아가서
더빙만
더빙때문에
기억에남는
엄마도
충격의
##좋아하네요
어느날
어느나라
안되는거
궁금한
궁금합니다
궁금하면
궁금한데
중국어
잔인한거
여주인공과
순수함과
빠져나올
##ㅠㅠㅠㅠㅠㅠㅠ
##하시지
따라갈
##것같네
나올줄
나올수가
영상미만
프로필
##해지는영화
CG를
다음이
다음에도
B급이
노잼이
비디오를
인물간의
이것들아
##보게된
성룡과
성룡영화중
귀엽지만
쓰레기영화에
쓰레기영화임
잔잔한게
##수준도
독특하지만
별점도
그리구
잘못이
보았고
어른인
어른의
존재한다는
영화임에는
세계관이
기다렸
멜로는
멜로의
이번시즌
나이들어
자연스럽
개그를
##나오는건
좀비는
방송이
방송은
질질끈다
##모르겟다
##을수있는
##을수없다
##들어간
낮은가
뭐가뭔지
가치관을
TV용
TV드라마
TV시리즈
예쁘네
끝나버린
불편해
누구인가
누구라도
즐거웠어요
##아이들
##중간중간
리얼해서
대단한듯
감성적
아닐지
##봐서그런지
잘만들었네
편집해서
어쩔수가
어려웠다
어려웠던
##하지도않
자극적
선택에
선택하는
범죄스릴러
끝내고
만족할
만족하고
만족스러
만족스러운
아쉬운영화
안보임
영웅은
대한민국이
진지하다
별루임
만점이다
불륜영화
감상할
##이런걸
##이런영화를
##이런쓰레기
##시는걸
병맛이
병맛이다
진실한
##코미디의
무서운건
독립영화의
희망과
##인물이
바람난
바람피는
알려주세요
유명배우
사라짐
느끼게해준
설명을
나쁘지는
연출력을
촬영을
코메디영화
이상한가
중반까진
만들었다니
만들었다는게
경찰들이
노력과
노력했지만
인정한다
부모를
부모님이
알았다면
예고편보고
관계와
풀어낼
거지같다
행동들
작품이었습니다
못보겠더라
어렵지
이어진
그려냈
그려내는
자유는
자유가
잘생겨서
정치적인
##해주셔서
러브액
미래에
황당함
##대박이다
예전에도
인상깊고
인상깊었음
취향을
##었나보다
##해주는영화
##모습에
감탄을
감탄하게
화가나
고민과
리뷰보고
넘어갈
호러영화
해주는데
해주셔서
연예인을
##웃음이
적당하다고
후속편이
모자람
사기다
10년간
##하지마시고
산만하게
아침마다
무협물
난해함
몸매도
등장인물도
되었다는
북한을
##ound
동물은
##안되요
지구는
30여
악역도
악역으로
태어났
표정은
아나킨
퀄리티도
30분이
30분만에
반성좀
##버렸습니다
그린작품
부터는
씁쓸함
악당의
나가자고
##하시는분들
출연진은
##나와야
능력은
시각을
시각적
시각적인
영화라는걸
시걸형님
죽여버릴
##이자나
단연최고
연결되는
##하신듯
베스트에
정신병원
상업적인
전반부
10자10자
세월의
전문가들
주변의
없다는걸
로그인까지
##atch
찌질하게
마이클베
보았다면
##재미없다고
게이영화
아역들
찝찝해
##정신을
검색해서
남겨본다
##연출력
007시리즈
떠오를
믿을수가
지켜보는
##떨어져
조선시대
##어주기
이해하기엔
끌어내
로봇의
자살을
투자자
사랑이야기가
기술력
방법은
방법으로
시즌2가
김민정
풍경은
##했나보다
보여주고자
어린시절에
못생김
못생겨서
대본이
현실성없는
빌려본
동성애에
동성애자
이해안간다
세련되게
##괜찮은
##괜찮았는데
##요소를
새끼가
새끼들은
여름방학
보자면
테러를
##상황에서
ㅎㅎㅎㅎㅎ
감흥은
베드신도
연기잘함
아까울뿐
오랜만이네요
어두워서
작위적이다
첫사랑이
다시보고싶어요
##사건이
##사건을
##바이러스
안쓰고
충실히
한숨이
킬링타임용으로는
시리즈중에서
기다려지네요
기준은
생각할수록
##스타일의
디테일하게
담배피
시청자들의
흥미로웠던
효과가
효과를
조카들이
##부를때
영화화한
못봐줄
어느정도는
독일의
여자주인공의
조니뎁이
잼잇어요
조절이
디워가
폭풍감동
폭풍눈물
말하고자하는
심형래가
심형래의
앞뒤도
플롯이
새로움
즐겨보는
##이였으면
##문화에
3번이나
인터넷에
끼워넣은
중독성이
매력적이었다
우뢰매가
부탁해
자랑하는
호기심이
##뻔한스토리
30년이
따위로
박중훈은
부르기도
판단하지
대통령의
엑스파
##iss
감동받아서
프리먼
프리즌
##느껴지는
당황스럽다
사무라
##스크린
마지막회까지
각색한
헛웃음이
뭐하는건지
예수님의
##아쉬운
고뇌를
혐오스런
##대단한
개똥같은
유덕화의
강간을
도시락
점수준거
안어울리는
안어울린다
잊을수없는
##ody
즐기기
분량이
##장르가
설득력도
말아야할
스피디
이지경
이지아
갔다온
고독과
단어는
예측가능한
한지혜
과정에
모욕감을
조차도
판타지는
판타지도
한가인
##제작진
뻔한스토리에
액션씬도
반영한
##분위기가
##노답노답
죽이러
평화로운
##아무것도
불과한
생겼는데
지옥의
긴박감이
이종혁
직업을
##어색하고
마법사
잘생겼고
억울하게
열라구
민족의
성의없는
연상시키는
##광고를
##100배
소유진
##ame
##으면좋겠다
##으면좋겠어요
극혐이다
##보지마셈
##맘에안
그외에는
고증을
고양이는
박시환
실수로
지독하게
참여한
김명민의
모른다는
주고싶지만
파고들
##케이블
마누라가
##ilm
기승전병
배드신
버무린
반갑다
알수있음
하드코어
흉내내는
##손가락안에
##예쁘다
##잘생겼
윌리엄스의
타이틀을
부드럽게
성찰을
##에로영화
다큐멘터리를
모성애를
##2222
못따라간다
비하하는
흡입력있는
뮤직비디오를
애로영화
저주받은
##냄새가
명확한
식스센
영화계에서
너무낮다
깜짝놀랐
3d로
김영철
더러워서
차분하고
이해가안감
독창적인
##전달이
##삼류영화
김소현
대략난감
유부남
이재은
##누구도
가르쳐준
수백향
##죽을뻔
분노의질주
잘나가다
인내심의
나왓으면
무책임한
트루먼
##오랜만
어울리지도
소문난
어줍잖
샤론스톤의
아랫분
에어리언
왜냐면
롯데시네마
##무엇보다
복제인간
불사신
운운하는
졸립고
##인상깊
##전문가
정글의
지저분하고
깜찍한
재일교포
최선정
##타이틀
see
낮춰야
으으으
골든타임
눈높이에
미루다
지리멸
근친상
호프만의
홍수현
꼬아르
박영규
안성기의
언더월드
두렵다
무신론
베르세르
적합한
##aby
사냥꾼
만만치
박철수
주장하는
최우식
안드로메다로
서글픈
남동생의
이서진
잡다한
아이엠샘
게리올드만
다코타패닝
쓸모없는
##카타파하
1초도
IMDB
백성현
스턴트맨
원더풀
유연석
가지가지
견줄만한
드팔마
바티칸
비열한
히든싱어
##연예인
경각심을
과분하다
물음표
박근혜
전광렬
중3때
패틴슨
영화학도
동물농장
자이언트
아슬아슬
장례식
황당무계
like
김해숙
노민우
러시안
로미오와
먹여살
이청아
박기웅
이데올로
이벤트
지지부진
프로포즈
개신교
무참히
별다섯개
블럭버스터
허황된
평가절하
총체적난국
KTX
수채화
임요환
포세이돈
한경직
##지덕지
다중인격
유루유리
cctv
린즈링
바퀴벌레
삼시세끼
에머리히
연제욱
착신아리
1에
1부
2의
2에
3인
32
4년전
4번째
5번은
7년이
7년전
7점이상
84
8천원
97년
96년
For
God
Not
Oh
Top
bbbb
co
don
fa
fun
god
le
want
ㅗㅗㅗ
ㅜㅡ
가격
가발
가는지
가레스
가질수
각시탈
간과
간통
간절한
갈갈
갑옷
갑인듯
같더라
개이
개방
개선
개취
개쓰
개OOO
개재미없음
갠춘
갠적으론
건조한
걸리는
겁내
겁난다
것이고
격추
격하게
계약
고단
고등
고향이
고1때
공무원
과자
과격
과유
관점을
교체
구사
구제
구체
구닥
국가가
군인들
궁상
권력에
그이
그도
그전
그뒤
그이후
그시간에
그시대의
그어떤
금고
급격
기를
기냥
길에
김서
김광
김석
깔고
꼬인
꼭두각
꼴리는
꿀꿀
꿀잠
꿈에서
나감
나눈
나보다
나니까
나는지
난진짜
날렸다
남게
낫다는
낮죠
낮출
내래
내어
내릴
냉전
너와
너목
넘어야
노리
노인을
노처녀
놓았다
누적
누르고
눈망
눈에는
느그
느니다
늘려서
다잡
다닌
다채
다짜고
다필요없고
다이스키
달러
달랑
담당
답변
닿는
대적
대강
던진
데가
덴마
도미
됐지만
됐는지
되나요
되고싶다
되었는지
되었을까
되살아
두리
두들
뒤가
뒤에는
뒷맛
드라이브
듣다가
들마
들의
들게하는
따온
따지는
딱좋은
떠서
또래
또봐야지
똥만
라도
로만
로랑
료코
마감
마티
막방
막바
만나다
많으신
말좀
말초
말하자
말았음
말해주
말한마디
맘편
망해
망하게
맞어
맞짱
맡았던
머하는
먼데
멀었다
멋드러
멍미
메타
멜라니
면상
명장
명랑
명심
몇이나
몇가지
몇명이
모레
목에
몰살
몸도
못하는데
못했을
못한다면
몽상
몽롱
무교
무감각
문을
물든
뭔놈의
뭔생각으로
뭔말인지
뮤지션
민아
민종
민감한
밀폐
바니다
바가지
박쥐
반만
반에
반란
반올림
받았음
받았어요
발사
밝히는
밥맛
방치
방학
방대한
배치
백진희
버이
버러지
번쯤
범람
범인의
법은
벗기
베티
벨루치
별도
보성
보완
보였는데
보아라
복장
본인들이
본인도
본받을
볼듯
볼맛
봣지만
봤어여
부당
부집
분도
불공
비스
빈틈이
빛난
빡치게
빡친다
빨랑
빨랐
빼놓고
뿌린
뿐인데
뿐이지
사지
사도
사각
사탄
사상을
사상이
사생활
살리기
살았으면
삼생
삼총사
상품
상도
상쾌한
샘레이
생을
생방
서현
서편
서투
섞은
선이
설국
설레이
성을
성대
세세한
소시오
속물
속이는
손님
손바닥
송강
수신
수행
수용
수염
숙면
순서
숨바
숭고
스태
스모
스킨
스멜
스들이
스론의
슨상
승리는
승부를
시고
시공
시린
신입
신용
실버
실수는
십수
싱글
싱싱
싸구
싸워
싸움이
썩을
쓰네
쓰다니
쓰지말고
씨부
아미
아비
아임
아실
아베
아기를
아정말
아아아
악순
악녀
안면
안했
안드
안풀
안다고
안주는
않으
않으면서도
알랑
알반
알것이다
알프레
암에
앞으론
애미
애비
애랑
약빨
얘가
얘기도
어한
어때
억지도
엄지원
업고
없슴
없겠지만
없었네요
에고
에밀
여중
여론
연대기
연달아
열고
엿볼수
영양
예진
예견
오를
오점
오키
오염
오지게
오즈의
옥택
온주완
올가
올리지
옷도
와닫
왔으면
왕창
왜안
왜그리
요란한
욕나와
욕먹는
용이
우짜
운명이
울며
울렸다
웃어서
원한다
원하던
웨딩
웨슬
위트가
유해
유유
육감
윤여
으아아
이을
이던
이른
이땅
이겼
이에요
이라니
이놈의
이광수
익스트
인어
인식을
일만
일로
일당
일편
일과
읽는게
임펙트
입맛
있구
있더라도
있듯이
자네
자괴
자폭
작곡
잘될
잘했고
잘하는거
잘모르겠다
잠입
잠듬
잠자기
잠온다
잡아서
재상영
잼잼
잼나고
잼써요
저승
적고
적막
전략
점령
점이다
정리가
정겨운
조던
조세
조국
존멋
졸았던
종나
종족
종료
좋냐
좋군
좋구만
좌익
주차
주근
주면서
죽네
죽자
죽었으면
준영
줄만
줄수있는
중공
중후
중엔
중인데
중에선
줬으면
증발
지대
지고
지네요
지적인
지식이
직전
진희
진중
집을
집니다
짓은
짜내
짱이고
쩌리
쩌는데
쪽으로
찍다가
찍으면서
차이나
채시라
책과
책이나
처키
천조
천황
첨이네요
첫째
체인지
쳐맞
쳐들어
초강추
총들고
최재
추기
추측
축소
춤에
춤은
충만
치정
카밀라
캐나다
컴플렉
코리
크면
타협
테론의
테니스
테렌스
토나오는
토나옴
통하는
퇴물
투혼
트릭
트위
트렁
트레이
트리에
특급
특선
틀고
티나는
파커
파이란
판매
패트릭
팬심
페티
평면
평도
평들이
평행이
포텐
포드
폭력이
풀풀
풍자가
피부
피폐
피티
필리
하와
하죠
하두
하질
하느
하악
하더만
한재
한자
한획
한복
한것도
할꺼
해놓
해로운
해냈다
핵폭탄
향기를
허지
헌데
현지
현혹
형용
호감이
화성
화법
환생
환각
황신혜
회의
회수
후편
후우
후지다
휘두
흐흐
흐흐흐
흔하지
흘리는
흘렸습니다
흠이라면
흥겨운
히데
히가
힘만
힘드
힘찬
##라카
##높음
##이만
##이정도
##이여서
##이따구
##니에
##지수
##지림
##지켜
##경이랑
##인식
##인애
##인것도
##데도
##면은
##주곡
##주겠다
##짜릿
##좋앗다
##생을
##생들
##기회
##성적
##성이나
##가끔
##가볍
##마일
##마니아
##화와
##화나
##였기에
##였군요
##였는가
##을위해
##ave
##sf
##si
##tm
##hy
##재방
##재앙
##정리
##정치
##정체
##정으로
##정적으로
##만능
##로와
##로를
##한방
##한대
##한척
##한듯한
##좀더
##귀신이
##여주인공
##희야
##난후
##러움
##에버
##냐ㅡㅡ
##1에
##16
##17
##해에
##해봐
##해지지
##해버림
##래미
##않은
##영호
##영이랑
##자주
##자서
##자들에게
##자리를
##자신의
##사스
##사위
##할려면
##할아버지
##할줄이야
##수빈
##대와
##대며
##대면서
##하난
##하였으나
##것중
##것없는
##것밖에
##리긴
##리버
##리씨
##값도
##치다가
##시니
##시러
##죽인
##현아
##했는가
##려하고
##려는거
##고양이
##uu
##미다
##있던데
##거래
##거란
##거릴
##글자로
##말야
##말인가
##들면
##ON
##어쩜
##어지게
##어렸을때
##공식
##매기
##게이트
##싸우
##서스
##서준
##예정
##렸다고
##iv
##ist
##gk
##상승
##파요
##파더
##두를
##히기
##히네
##나이가
##나가서
##오지
##오분
##오락
##타게
##타를
##타빌
##보진
##보죠
##보호
##보삼
##보이네요
##보이지만
##보시고
##보영이
##감의
##감없이
##유아
##랑께
##신데
##신다면
##봤어야
##봣네
##민망
##심하게
##0억
##터의
##빠른
##빠진다
##눈을
##안질
##안간다
##안남기는데
##물며
##그레이
##된것
##부인
##급이네
##배가
##우지
##우돌
##없어도
##올리
##겟어
##세는
##세하게
##울음
##루가
##되었음
##명수
##겨워
##각각
##뿐인데
##즈와
##즈베리
##저러
##포도
##넘어가
##르기
##찬은
##독특
##듯합니다
##중년
##역도
##입곡
##조에
##설이
##설정도
##카오
##모는
##모아
##모레
##까기
##차도
##줄게
##줄께
##준사람
##바나
##바야
##키코
##먼지
##결에
##종옥
##림은
##학적인
##무이
##무기
##무적
##무식
##무언
##무죄
##멋있
##멋져요
##날을
##날리며
##전트
##견이
##씩은
##본지
##교사
##군에
##군은
##받기
##폐기물
##린의
##린듯
##실수
##실때
##실력이
##팬들이
##팬으로서
##용에
##쌍둥이
##패영화
##단게
##권도
##투를
##돈아까워
##코네
##코드를
##코스프레
##잘했다
##잘해요
##잘만든
##잘표현
##크다
##됐네
##티지
##티아
##피어
##집단
##호준
##약이
##선에서
##잡다
##졌나
##엄엄
##불구하고
##3분
##32
##회는
##회장
##추가
##추리
##추격
##머냐
##떠서
##누르
##너프
##킨스의
##쉬는
##쉬고
##새는
##새없이
##잇네
##잇지만
##FO
##외모
##위주
##55
##2번
##24
##쏘는
##련이
##EE
##ES
##됬지
##됬지만
##체는
##존잼
##특공대
##징글
##째치고
##강을
##십자
##활한
##쓰리
##참신
##윤재
##털이
##갈아
##색깔
##쿠르
##덕이
##닝의
##쳐야
##쓴듯
##밥에
##낫음
##딸은
##갖춘
##뭔데
##왓는데
##허슬
##허술
##페스트
##뭐라
##뭐고
##ㄷㄱ
##돋는
##돋음
##클라
##클래
##SA
##앗고
##앗어요
##났다고
##ㅈㄴ
##곳으로
##슈얼
##컬한
##얘기만
##쪽팔
##땡이
##똑같은
##똑같이
##첩보
##튼이
##깜놀
##묻은
##턴이
##BC
##묘사가
##LL
##뛰어난
영화긴
영화ㅎ
영화전
영화ㅠㅠ
영화들도
영화이며
영화선택
영화포스터
영화감상
##ㅋㅋ진짜
##는데요
너무많은
재미진
재미따
재미로만
정말실망
정말재밌다
##하고픈
재밌어지는
재밌었네요
진짜개
진짜대박
연기두
연기정말
연기좋고
최고였
최고인데
이런것이다
##이다가
생각들
생각뿐
생각되네요
스토리랑
감동깊은
보고만
지루하지는
##이라길래
##보다보면
드라마인듯
그냥그런
배우라는
배우님들
배우분들의
10억
아니나
아니여서
아니였지만
아니여도
재미있지
재미있당
사람인가
사람과의
감독인데
감독이라는
만들길
만들긴
만들었습니다
##해서인지
##해서봤는데
사랑보다
사랑한다는
사랑하고싶
쓰레기영화를
보는사람이
좋아짐
이거보니
이거완전
이거뭐야
내가봤던
작품중에
##ㅠㅠ♥
완전별로
기대한다
기대기대
기대감을
기대치가
기대했다면
최고의작품
없는거냐
##하지가
있는걸까
하나였다
ㅋㅋㅋ아
처음보고
처음이야
한국에서도
한국인을
##없는거
##없는건
하는지도
하는건데
나오질
나오기는
나오자마자
최악에
최악중의
1점이나
10점줄
별로인데
별로예요
모르네
이해해
이해되는
이해하겠는데
아깝지않은
그래비
우리학교
느낌임
평점이너무
재밌게봐서
기억할
기억남는
괜찮지
괜찮다는
괜찮았습니다
##되는듯
여자아이
그런느낌
만든지
ㅠㅠ진짜
공포감을
일본특유의
아닌건
아닌영화
무슨말
무슨생각
무슨짓을
유치의
볼만하구만
##사람에게
다른사람이
다른분들은
소재라
소재지만
남자만
반전만
##하기때문에
##하기라도
가장좋아하는
보기위해
가슴만
눈물나네요
